<unk>	0
<s>	0
</s>	0
.	-2.88174
,	-4.1
▁	-4.3136
을	-4.64295
를	-4.66091
▁1	-4.7479
의	-4.78879
가	-4.82244
▁0	-4.8858
이	-4.95624
)	-5.0089
는	-5.0326
▁감사합니다	-5.05653
(	-5.05883
▁수	-5.15392
▁2	-5.33669
로	-5.4111
!	-5.46966
에	-5.51479
...	-5.55347
?	-5.59
▁것	-5.60753
▁=	-5.6182
▁3	-5.64146
도	-5.67124
[	-5.72175
▁있습니다	-5.7642
/	-5.79545
은	-5.80358
▁이	-5.82938
▁(	-5.84426
으로	-5.91273
i	-5.93241
▁4	-5.95265
▁됩니다	-5.96282
n	-5.98369
]	-5.98778
▁때	-6.00015
▁같습니다	-6.00623
번째	-6.09268
▁5	-6.10825
_	-6.12607
만	-6.12929
에서	-6.1322
▁때문에	-6.19149
://	-6.20457
▁합니다	-6.22064
▁있는	-6.25625
▁i	-6.25635
번	-6.25663
:	-6.32243
▁경우	-6.33555
▁a	-6.34177
▁더	-6.36221
▁그	-6.37128
▁n	-6.37376
▁+	-6.42765
▁한	-6.43872
▁잘	-6.46617
▁안	-6.4721
▁int	-6.47217
▁같은	-6.5056
▁10	-6.50742
▁"	-6.51759
1	-6.52663
인	-6.53248
입니다	-6.54337
와	-6.54498
"	-6.55698
;	-6.56237
▁아	-6.56247
▁N	-6.57829
게	-6.58384
▁6	-6.58904
▁:	-6.59101
!!	-6.60922
2	-6.6096
a	-6.61975
()	-6.65384
▁다른	-6.66241
▁for	-6.69156
▁-	-6.70299
▁8	-6.70338
▁문제	-6.70527
▁7	-6.72028
'	-6.73192
▁다시	-6.73261
과	-6.7334
▁if	-6.76419
▁O	-6.76637
▁제가	-6.78105
▁문제가	-6.78979
▁없습니다	-6.79384
www	-6.7948
net	-6.80662
acmicpc	-6.81843
▁입력	-6.81982
▁https	-6.85554
지	-6.86322
N	-6.86861
▁아니라	-6.87858
▁할	-6.88411
▁-1	-6.88424
-	-6.88764
s	-6.8942
▁코드를	-6.89596
▁'	-6.89641
▁@	-6.91241
▁것이	-6.91266
x	-6.92478
▁b	-6.9388
▁두	-6.94013
▁답변	-6.94707
일	-6.94759
고	-6.96502
▁될	-6.96578
▁9	-6.96589
▁C	-6.97447
▁출력	-6.97625
▁정말	-6.97854
3	-6.98874
▁값이	-7.00056
▁ᅲᅲ	-7.00124
b	-7.01697
보다	-7.0178
▁시간	-7.01893
int	-7.02932
▁문제를	-7.04406
▁코드	-7.04731
▁값을	-7.04888
j	-7.05083
▁100	-7.06312
▁x	-7.06625
▁모든	-7.07114
d	-7.07231
까지	-7.07655
▁*	-7.08607
▁수정했습니다	-7.08821
▁==	-7.11891
▁하는	-7.12629
▁않습니다	-7.13221
▁하면	-7.13585
부터	-7.13732
▁<	-7.13884
▁다	-7.13945
▁c	-7.15357
▁모두	-7.15594
▁반례	-7.15954
https	-7.1727
c	-7.17325
▁->	-7.1749
▁A	-7.17654
한	-7.1938
서	-7.21224
▁같이	-7.2191
▁long	-7.2373
▁반례입니다	-7.24393
▁같네요	-7.25438
com	-7.25842
▁j	-7.26275
▁아닌	-7.27356
▁최대	-7.27658
라고	-7.27871
▁코드는	-7.27907
요	-7.28501
▁줄	-7.28952
▁그냥	-7.29153
나	-7.32483
▁{	-7.32657
▁arr	-7.33075
▁해결했습니다	-7.33791
▁어떻게	-7.34104
▁이렇게	-7.34677
▁큰	-7.34846
▁왜	-7.36461
개	-7.36581
▁어떤	-7.36772
▁덕분에	-7.36899
▁가	-7.37064
~	-7.37578
▁너무	-7.3772
▁게	-7.38319
감사합니다	-7.38448
][	-7.38608
y	-7.40348
▁메모리	-7.40411
▁}	-7.41214
▁바로	-7.42437
▁이런	-7.4376
*	-7.43859
▁번	-7.44028
▁가장	-7.45185
▁많이	-7.45213
▁B	-7.45902
▁있을	-7.4603
);	-7.46942
▁잘못	-7.47512
=	-7.48062
▁문제는	-7.48068
++	-7.48388
▁되는	-7.48453
▁저도	-7.4878
+	-7.48945
▁해당	-7.48997
▁문자열	-7.49032
0	-7.49754
▁것입니다	-7.50054
▁배열	-7.5059
A	-7.51143
▁것을	-7.51738
board	-7.51757
면	-7.52313
▁줄에	-7.5253
▁정답	-7.5274
▁k	-7.5383
▁11	-7.53847
k	-7.54329
▁것은	-7.55343
할	-7.56716
▁줄에서	-7.56767
▁를	-7.5678
▁와	-7.57792
라는	-7.58282
▁다음	-7.58312
>	-7.58612
▁%	-7.58961
▁계속	-7.591
개의	-7.59141
▁제	-7.59355
그리고	-7.59432
합니다	-7.59535
▁대한	-7.59837
▁않고	-7.60615
▁수도	-7.60665
▁로	-7.6073
▁dp	-7.6081
▁거	-7.61284
▁감사드립니다	-7.61302
▁하나	-7.6179
▁혹시	-7.61997
<	-7.62147
▁수가	-7.62392
▁답이	-7.62422
▁재채점했습니다	-7.62621
▁없는	-7.62953
▁같아요	-7.63827
▁먼저	-7.64634
▁\	-7.64739
▁에러가	-7.65138
해서	-7.65239
▁20	-7.66904
하는	-7.66966
▁제대로	-7.67564
기	-7.68265
B	-7.68362
▁그리고	-7.68412
▁input	-7.68592
▁테스트	-7.68905
C	-7.69057
▁대해	-7.69556
▁나옵니다	-7.70074
/...	-7.70308
▁입력을	-7.70462
▁건	-7.70483
▁그대로	-7.70783
??	-7.70789
▁한번	-7.71342
▁M	-7.71436
▁ᄒᄒ	-7.72183
인데	-7.72265
▁y	-7.72488
▁scanf	-7.72605
▁각	-7.73196
▁부분이	-7.73352
▁return	-7.73376
▁하고	-7.73673
4	-7.74649
m	-7.74904
▁중	-7.74972
▁s	-7.75393
▁알	-7.75546
▁저	-7.76244
-1	-7.7644
문	-7.76773
▁런타임	-7.77116
▁코드가	-7.7732
▁좀	-7.77975
▁것으로	-7.78336
▁못	-7.78439
▁m	-7.78513
▁초기화	-7.7859
▁in	-7.78699
▁아닙니다	-7.78822
▁않은	-7.78934
▁d	-7.79092
▁아래	-7.79221
네요	-7.79232
▁시간이	-7.79252
하고	-7.79667
▁while	-7.8013
▁해서	-7.81116
▁않는	-7.81313
▁배열의	-7.81376
▁경우가	-7.8141
▁배열을	-7.81723
이고	-7.82021
▁시간초과가	-7.82048
거	-7.82648
▁번째	-7.82872
▁결과	-7.8301
▁max	-7.83623
▁후	-7.84109
다	-7.84418
▁12	-7.8462
▁네	-7.8569
▁위	-7.86038
▁그런	-7.86162
▁이미	-7.86211
▁함수	-7.8661
▁있는데	-7.868
▁>	-7.8706
▁때문입니다	-7.87147
▁범위를	-7.87851
▁입니다	-7.88568
님	-7.88724
▁항상	-7.89502
▁부분을	-7.90009
▁/	-7.90362
▁예제	-7.90468
▁마지막	-7.90558
▁현재	-7.90772
▁같은데	-7.90847
▁1000	-7.90861
▁조건을	-7.91652
5	-7.91823
▁질문	-7.9255
▁하는데	-7.93019
▁들어	-7.93244
▁..	-7.93753
▁저는	-7.94193
이면	-7.94366
에는	-7.94407
▁일단	-7.94772
▁입력이	-7.94818
▁작은	-7.9504
%	-7.95363
▁좋은	-7.96049
▁문제의	-7.96561
▁오류가	-7.96759
▁따라서	-7.96763
▁문제에서	-7.96938
▁채점	-7.97084
ᅲᅲ	-7.97087
▁추가	-7.97451
▁직접	-7.97468
하게	-7.98065
▁해결	-7.9826
▁보세요	-7.9833
출력	-7.98356
▁풀	-7.98812
▁else	-7.99101
▁보면	-7.9927
e	-7.99392
▁맞습니다	-8.00243
▁줄의	-8.00651
▁15	-8.00914
▁되어	-8.02439
▁num	-8.02703
▁char	-8.02948
에서는	-8.02978
[0]	-8.03091
▁<=	-8.03517
▁하지	-8.03609
v	-8.04132
▁경우는	-8.04199
▁이상	-8.04272
▁있을까요	-8.04496
ideone	-8.04714
▁겁니다	-8.04736
▁나오네요	-8.04782
▁있고	-8.05089
▁틀린	-8.05155
▁수를	-8.05681
하면	-8.05743
▁50	-8.06189
▁list	-8.06299
▁또	-8.06752
▁걸	-8.06803
▁리스트	-8.06954
▁보입니다	-8.0766
▁나오는	-8.0768
▁하지만	-8.07733
▁0;	-8.0792
이므로	-8.08304
!!!	-8.09248
▁좋을	-8.09508
▁방법이	-8.09672
▁전부	-8.09896
▁:)	-8.0995
▁30	-8.10091
▁sum	-8.11064
▁첫	-8.11173
▁해야	-8.1132
이기	-8.11543
▁그래서	-8.11976
▁잘못된	-8.12401
▁여러	-8.12638
▁초과	-8.12649
▁이해가	-8.12715
▁처음	-8.12941
▁보고	-8.13006
▁즉	-8.13034
랑	-8.13067
▁조금	-8.1339
r	-8.13458
▁그렇게	-8.13488
h	-8.13866
t	-8.14236
▁되지	-8.14497
▁변수	-8.14603
p	-8.14615
시	-8.14752
▁print	-8.14817
▁되고	-8.15099
",	-8.15117
▁경우를	-8.15157
▁뒤에	-8.15884
▁경우에는	-8.16162
▁크기가	-8.16179
▁길이	-8.16456
▁많은	-8.16659
▁16	-8.16674
."	-8.16699
▁함수를	-8.17057
M	-8.1727
이라고	-8.17314
▁길이가	-8.17439
▁정렬	-8.17452
▁도움이	-8.17588
▁ᅲ	-8.17609
▁//	-8.17825
▁count	-8.17899
▁되면	-8.18162
문을	-8.1822
▁정수	-8.18451
▁데이터	-8.18579
▁알고	-8.18608
▁맨	-8.18662
하지	-8.18668
▁값	-8.18997
▁13	-8.19057
f	-8.19157
▁대해서	-8.19487
▁21	-8.19864
▁발생합니다	-8.20263
+1	-8.20505
▁set	-8.20996
▁초과가	-8.21183
▁cin	-8.21637
▁수정	-8.21934
arr	-8.2194
▁해	-8.2198
▁전체	-8.22024
▁지금	-8.22037
▁있어서	-8.22382
▁실행	-8.2268
▁줄을	-8.22726
▁부분	-8.22748
▁답을	-8.22771
▁[	-8.23006
▁출력이	-8.23139
▁사용	-8.23262
->	-8.233
▁따라	-8.23538
▁방법을	-8.24557
▁아닌가요	-8.24785
▁때는	-8.24891
▁있기	-8.24906
▁보시면	-8.25002
▁으로	-8.25088
▁이유는	-8.25112
▁죄송합니다	-8.25218
해	-8.25439
▁맞았습니다	-8.25637
▁따로	-8.25661
이나	-8.26049
이라는	-8.2609
▁위해	-8.26097
▁...	-8.26194
제가	-8.2631
▁map	-8.2639
수	-8.26638
▁에러	-8.26722
▁코드에서	-8.26797
▁틀렸다고	-8.26813
▁크기를	-8.26892
▁결과가	-8.26918
("%	-8.27123
▁그렇군요	-8.27215
▁경우에	-8.27334
▁min	-8.2773
▁해도	-8.27783
▁cnt	-8.27935
된	-8.28029
▁&	-8.28034
▁printf	-8.28085
▁아래와	-8.28335
줄	-8.28493
▁몇	-8.2863
▁정도	-8.2872
▁문제에	-8.28728
▁사용하는	-8.28804
일때	-8.28805
▁매우	-8.28941
++)	-8.28943
▁알고리즘	-8.29001
▁있었네요	-8.29295
▁#	-8.29378
▁14	-8.29418
▁안에	-8.2963
이렇게	-8.29734
▁v	-8.2983
▁개	-8.30037
정답	-8.3034
▁반례가	-8.30472
다고	-8.30877
▁뒤	-8.30885
▁조건이	-8.31416
▁전에	-8.31466
입력	-8.31517
▁그런데	-8.31966
▁전	-8.32118
7	-8.32166
▁구현	-8.32184
▁코드의	-8.32269
▁필요가	-8.32351
input	-8.32531
▁출력하는	-8.3261
야	-8.32661
▁생각	-8.32727
인지	-8.32841
▁무조건	-8.33668
▁나올	-8.33693
▁&&	-8.33762
▁되네요	-8.33786
초	-8.33801
▁안녕하세요	-8.33883
▁dfs	-8.33925
▁연산	-8.33952
▁드립니다	-8.34153
▁S	-8.34253
그	-8.3436
\	-8.34604
03178	-8.34638
것	-8.34651
▁설명	-8.34759
라	-8.34935
▁없이	-8.35129
▁컴파일	-8.35146
▁p	-8.35366
▁≤	-8.35388
▁생각합니다	-8.35391
▁~	-8.35875
▁처리	-8.35881
▁다음과	-8.36027
▁나머지	-8.36267
^2)	-8.36283
6	-8.36588
▁방법	-8.36715
▁대신	-8.3681
▁에서	-8.3693
됩니다	-8.37125
D	-8.37505
▁범위	-8.37587
▁모르겠습니다	-8.377
▁구하는	-8.37891
▁볼	-8.37973
O	-8.3828
하기	-8.38613
▁최소	-8.38808
▁r	-8.38978
걸	-8.3904
▁무슨	-8.39162
처럼	-8.39191
▁break	-8.39411
▁방문	-8.39482
▁재귀	-8.39589
▁아직	-8.39828
▁range	-8.40108
▁큐에	-8.40229
▁확인	-8.40279
▁그러면	-8.41099
9	-8.41135
▁의	-8.41244
▁차이가	-8.41313
[1]	-8.41428
따라서	-8.42188
▁줄이	-8.42315
▁문자열의	-8.4252
num	-8.4255
건	-8.42683
▁!=	-8.4278
::	-8.42907
▁23	-8.43037
▁맞는	-8.4312
▁했는데	-8.43323
▁식으로	-8.43589
히	-8.43679
값이	-8.43701
▁string	-8.4371
▁있나요	-8.43725
▁입력으로	-8.43726
▁str	-8.44061
▁댓글	-8.441
▁반복문	-8.44158
▁아마	-8.44276
▁제출	-8.44291
l	-8.44391
▁계산	-8.44568
▁ᅮᅮ	-8.4459
▁것도	-8.4461
w	-8.44984
그런데	-8.45035
▁듯	-8.45302
▁반례를	-8.4537
▁데이터를	-8.45467
▁있는지	-8.45676
▁연산을	-8.46229
▁날	-8.46401
▁바랍니다	-8.46456
값을	-8.46585
문제	-8.46648
▁통해	-8.46709
▁숫자	-8.46715
▁만약	-8.46863
▁bfs	-8.46872
▁방식으로	-8.46923
list	-8.46945
억	-8.46952
(1)	-8.47149
▁수는	-8.47318
▁24	-8.47546
▁sort	-8.47762
▁아하	-8.47787
▁cout	-8.4808
▁D	-8.48114
▁BFS	-8.48183
▁마지막에	-8.48342
▁인덱스	-8.48629
진	-8.48662
들을	-8.48694
▁되었습니다	-8.48869
▁있다는	-8.48923
▁쓰는	-8.4906
10	-8.4907
▁1,	-8.49288
▁<<	-8.49441
▁25	-8.49578
▁가지	-8.4964
▁둘	-8.49853
▁되는데	-8.49899
하지만	-8.49966
하여	-8.49999
▁main	-8.50441
▁f	-8.50555
▁주어진	-8.5061
다면	-8.50677
▁32	-8.50701
▁예를	-8.50701
▁원소를	-8.50795
ᅲ	-8.50874
))	-8.51019
▁않을	-8.51233
▁우선	-8.51374
▁00	-8.51794
▁22	-8.51866
위	-8.52146
마다	-8.52311
지만	-8.5235
▁X	-8.52861
▁있으면	-8.52887
▁나는	-8.5291
▁보니	-8.52959
▁sys	-8.53425
if	-8.54041
▁부분에서	-8.54062
▁10000	-8.54426
▁17	-8.54435
▁진짜	-8.54574
▁40	-8.54586
니까	-8.54698
▁라고	-8.55096
▁과정에서	-8.55103
▁위에	-8.55135
▁정답이	-8.55326
▁세	-8.55463
▁일	-8.55499
▁값은	-8.56098
니	-8.56108
▁사용할	-8.56132
▁원소	-8.56135
▁데이터가	-8.56346
▁원래	-8.56351
8	-8.56433
▁visited	-8.56744
▁않나요	-8.56859
▁칸	-8.56934
▁서로	-8.57026
for	-8.57185
▁위의	-8.57269
▁double	-8.57344
▁있네요	-8.57397
▁때마다	-8.57511
▁등	-8.58071
S	-8.58078
▁점	-8.58272
▁pop	-8.58284
▁말고	-8.5853
▁케이스	-8.58585
▁또는	-8.58667
stdin	-8.59198
▁이유	-8.59241
▁부분은	-8.59347
▁있지	-8.59414
▁프로그램	-8.59513
▁개행	-8.59577
▁앗	-8.59634
▁2,	-8.59814
X	-8.59906
그래서	-8.60003
▁있다고	-8.60124
▁기준으로	-8.60172
▁또한	-8.60193
▁했습니다	-8.60261
▁나와야	-8.60351
▁조건	-8.60353
▁총	-8.60443
▁문제입니다	-8.60557
▁각각	-8.60753
▁K	-8.60891
▁오	-8.6093
▁빠른	-8.61009
▁된	-8.61106
▁출력해야	-8.61107
^2	-8.6114
▁비교	-8.61215
는데	-8.61264
형	-8.6137
▁19	-8.61455
▁되어야	-8.6148
군요	-8.61504
▁모르겠지만	-8.61858
▁질문을	-8.61904
라면	-8.62142
▁공백	-8.62196
blog	-8.62218
▁문자	-8.62362
▁굳이	-8.62435
▁함수가	-8.62444
같은	-8.62695
데	-8.62704
▁시간을	-8.63143
이라	-8.63153
▁호출	-8.63212
▁아니고	-8.63258
▁1)	-8.63299
▁result	-8.63304
▁포인터	-8.63365
▁true	-8.63367
▁에	-8.63429
▁않아서	-8.63818
▁않을까요	-8.63826
어	-8.63961
아	-8.64088
▁님	-8.64202
▁루프	-8.64219
▁크기	-8.6433
▁시작	-8.6448
▁소스	-8.64829
▁생각해	-8.65163
▁18	-8.65169
자	-8.65265
▁좋습니다	-8.6557
혹시	-8.65583
▁이거	-8.65603
▁아니면	-8.65764
▁틀렸습니다	-8.65768
..?	-8.65814
▁이유가	-8.65833
▁모르겠네요	-8.65998
▁없을	-8.66074
▁문자가	-8.66182
중	-8.66825
▁가능한	-8.67071
분	-8.67518
▁답	-8.67616
▁있었습니다	-8.67712
▁받을	-8.67949
▁결국	-8.68035
▁T	-8.68044
▁쓰면	-8.68167
())	-8.68217
▁!	-8.68314
▁방법으로	-8.68406
▁이게	-8.68729
▁사실	-8.68824
▁하나의	-8.68996
거나	-8.6905
이런	-8.69152
▁있어요	-8.69184
▁처음에	-8.69211
▁배열에	-8.69217
▁답은	-8.69236
▁26	-8.6925
만큼	-8.69311
▁t	-8.69328
▁아예	-8.69443
▁이제	-8.69483
▁범위가	-8.6955
▁실수	-8.69634
▁문자를	-8.69663
];	-8.6967
▁q	-8.69673
▁있다면	-8.69828
▁31	-8.69913
▁가지고	-8.69953
▁여기서	-8.70058
g	-8.7026
▁index	-8.70287
▁탐색	-8.70368
▁음	-8.70832
▁하기	-8.71079
▁정확히	-8.71343
djm	-8.71395
▁글을	-8.71409
답	-8.71414
▁vector	-8.71472
해야	-8.71504
개가	-8.71647
예를	-8.71696
▁temp	-8.7183
문이	-8.71837
▁개수	-8.71989
▁만들	-8.72073
▁찾는	-8.72716
▁그럼	-8.72944
▁check	-8.73029
▁AC	-8.73033
▁자체가	-8.73198
▁납니다	-8.73476
▁출력을	-8.73696
▁라는	-8.7398
▁사용하면	-8.74059
o	-8.74083
z	-8.74202
제	-8.74274
▁ᄏᄏ	-8.74389
▁풀이	-8.74411
▁하나만	-8.74427
▁중복	-8.74713
습니다	-8.74728
▁>=	-8.74769
▁있지만	-8.75072
▁첫번째	-8.75317
▁시간초과	-8.75346
▁전혀	-8.75395
▁뜨네요	-8.75484
▁넣으면	-8.75491
▁푸는	-8.7562
▁헉	-8.75774
▁가능합니다	-8.76128
되는	-8.7625
.2.	-8.76322
▁건가요	-8.76458
▁언어	-8.76519
▁알고리즘을	-8.76613
개를	-8.76686
▁그렇네요	-8.7672
죠	-8.7686
▁이용해서	-8.7696
▁하나씩	-8.76969
▁근데	-8.77001
▁필요한	-8.7704
R	-8.7707
▁new	-8.77077
▁말	-8.77153
▁스택	-8.77173
▁시	-8.7718
▁반드시	-8.77183
▁ans	-8.77229
▁당연히	-8.77358
▁끝	-8.77371
했습니다	-8.77497
▁선언	-8.77531
max	-8.77869
▁방법은	-8.77885
▁않으면	-8.78157
▁실제로	-8.78254
▁인	-8.78523
▁글	-8.78533
▁변수를	-8.78552
자리	-8.78605
▁내	-8.7884
▁위치	-8.78947
;;	-8.78992
▁될까요	-8.78995
▁순서	-8.79071
▁통과	-8.79091
▁앞에	-8.79132
▁$	-8.79584
readline	-8.79622
E	-8.79943
▁L	-8.80172
▁어느	-8.80253
])	-8.80265
▁트리	-8.80362
size	-8.80704
▁체크	-8.80833
대로	-8.80867
▁이를	-8.80868
▁까지	-8.81181
▁DP	-8.8119
다른	-8.81345
즉	-8.81696
▁the	-8.81726
▁경우의	-8.81737
▁조건에	-8.8183
▁있으니	-8.81843
▁숫자가	-8.8205
답변	-8.82052
하	-8.82103
K	-8.8224
▁훨씬	-8.82255
▁false	-8.82439
11	-8.82483
▁파이썬	-8.82511
▁해결되었습니다	-8.82568
▁주어지는	-8.82646
▁말씀하신	-8.8273
▁나오는데	-8.82811
split	-8.82839
▁분	-8.82879
▁받는	-8.82921
▁출력됩니다	-8.83156
▁?	-8.83271
▁std	-8.83363
▁발생하는	-8.83532
▁queue	-8.83562
▁크게	-8.83925
▁실수를	-8.83969
지는	-8.83994
▁만들어	-8.84029
덕분에	-8.84124
}	-8.84279
▁배열이	-8.84316
▁코드로	-8.8437
다는	-8.84562
==	-8.84585
$	-8.84749
map	-8.8481
▁DFS	-8.84842
▁필요	-8.84925
("	-8.85096
▁새로운	-8.85291
▁다르게	-8.85356
▁그렇습니다	-8.85436
▁예시	-8.85469
▁쓸	-8.85508
▁바꾸면	-8.85527
ms	-8.8559
▁이후	-8.85901
▁1;	-8.85915
하는데	-8.8596
▁R	-8.86046
▁지	-8.86222
▁있다	-8.86224
▁것과	-8.86291
▁하네요	-8.8634
던	-8.86421
▁구	-8.8644
▁구할	-8.86552
▁반복	-8.86565
엔	-8.8657
▁자리	-8.86841
두	-8.87185
시간	-8.872
▁못했네요	-8.87271
',	-8.87292
#	-8.87342
▁아무	-8.87529
▁갈	-8.87719
..!	-8.87777
▁and	-8.87864
2)	-8.87878
▁가는	-8.87878
▁소수	-8.87891
▁생각을	-8.87932
▁저렇게	-8.8803
▁이해	-8.88076
q	-8.88102
문에서	-8.88301
▁공백이	-8.88487
▁is	-8.8878
▁코드에서는	-8.89004
=1	-8.89014
▁없어서	-8.8912
▁45	-8.89123
▁0,	-8.89155
▁len	-8.89181
▁P	-8.89267
[2]	-8.89385
();	-8.8952
▁+=	-8.89525
들이	-8.89668
▁descending	-8.89674
▁strlen	-8.89717
▁줄은	-8.89748
▁ascending	-8.89821
P	-8.89837
▁h	-8.89888
▁매번	-8.89935
include	-8.90256
아래	-8.90441
▁99	-8.90462
▁push	-8.90617
되지	-8.90681
▁테스트케이스	-8.90942
▁나온	-8.91001
▁루프를	-8.91068
차원	-8.91079
▁주세요	-8.91165
▁정상적으로	-8.91178
▁풀었습니다	-8.91206
u	-8.91497
또한	-8.91526
▁링크	-8.91785
▁여전히	-8.91914
T	-8.91987
▁경우도	-8.91999
▁60	-8.92308
주셔서	-8.92516
dp	-8.92544
행	-8.92551
[]	-8.9275
▁단순히	-8.92861
▁도움	-8.9299
▁원소가	-8.92997
▁우선순위	-8.93177
▁쉽게	-8.93231
-1)	-8.93282
▁안됩니다	-8.93525
▁횟수	-8.93531
1,	-8.93602
L	-8.9376
▁오버플로우가	-8.93806
▁꼭	-8.93943
▁stack	-8.9403
적인	-8.94081
▁시간복잡도가	-8.94252
▁해결할	-8.94264
▁역시	-8.9468
▁큐	-8.94707
▁이하	-8.94819
▁거의	-8.94855
▁표현	-8.94925
▁이걸	-8.94946
ᄒᄒ	-8.95075
▁발생할	-8.95215
▁추가로	-8.95257
▁코드에	-8.95291
▁오래	-8.95435
▁실제	-8.95625
상	-8.95644
▁개수를	-8.95693
▁빈	-8.95949
저는	-8.95951
▁정점	-8.9608
▁3,	-8.96349
긴	-8.9663
▁33	-8.96806
▁않아도	-8.97099
▁필요합니다	-8.97134
▁싶습니다	-8.97143
F	-8.9717
▁최악의	-8.97239
▁보통	-8.9737
▁숫자를	-8.97378
▁분들	-8.97418
▁그래도	-8.97491
▁접근	-8.97719
▁프로그램이	-8.97772
때	-8.9789
근데	-8.97969
▁!!	-8.98367
겠죠	-8.98519
str	-8.98564
든	-8.98689
▁개수가	-8.98717
되어	-8.98771
▁line	-8.98857
▁answer	-8.98879
씩	-8.99082
▁코드입니다	-8.99094
12	-8.99141
밖에	-8.99191
▁확인해	-8.99266
20	-8.99296
▁널	-8.99488
▁작성	-8.99637
output	-8.99767
▁미리	-8.99777
▁설정	-8.99787
▁사용하지	-8.9983
▁받은	-8.99924
▁할당	-9.00016
▁차이	-9.00135
▁문자열이	-9.0017
▁케이스가	-9.00196
▁오류	-9.00239
H	-9.00287
▁글자	-9.00443
▁종료	-9.00468
▁바꿔서	-9.00572
▁길이를	-9.00637
▁뭔가	-9.00838
이지만	-9.01062
^^	-9.01237
-1]	-9.01252
▁대회	-9.01339
될	-9.01394
▁오른쪽	-9.01511
▁충분히	-9.01558
인가요	-9.01663
view	-9.01685
<=	-9.01742
▁끝에	-9.01984
용	-9.02072
▁그래프	-9.02073
▁넣고	-9.02088
▁있어야	-9.02353
들	-9.0239
▁'\	-9.02407
만약	-9.02483
▁새로	-9.0252
▁입출력	-9.02588
▁순서대로	-9.02669
▁이동	-9.02671
▁말이	-9.02677
in	-9.02961
proble	-9.02987
▁맞게	-9.03042
▁28	-9.03077
▁거리	-9.03144
▁올바른	-9.03232
▁객체	-9.03426
▁출력합니다	-9.03455
stdio	-9.0346
▁l	-9.03684
▁알파벳	-9.03688
▁함수는	-9.03859
▁받고	-9.03888
▁출력하고	-9.04055
tistory	-9.04148
sort	-9.04201
적으로	-9.04237
100	-9.04242
하도록	-9.043
▁이는	-9.04384
▁출력할	-9.04489
▁약	-9.04518
▁>>	-9.04521
▁이건	-9.04566
▁매	-9.0465
▁나	-9.04866
▁of	-9.05038
▁그걸	-9.05153
▁사람이	-9.05205
▁저장	-9.05256
▁동일한	-9.05511
▁EOF	-9.05575
▁상태	-9.0576
▁Python	-9.05768
▁초기화를	-9.0583
▁제일	-9.05915
▁조언	-9.05916
하시면	-9.05936
정말	-9.06014
▁27	-9.06105
까지의	-9.06192
▁주어진다	-9.06229
▁코딩	-9.06268
▁반례는	-9.06314
▁사이에	-9.06375
▁찾을	-9.06405
V	-9.06405
▁은	-9.06594
▁사용해서	-9.06683
▁과	-9.06719
▁케이스를	-9.06765
▁일이	-9.06864
▁있어	-9.06883
▁않아	-9.06993
▁아무것도	-9.0725
▁곳	-9.07321
때문에	-9.07395
▁다음에	-9.07507
라서	-9.07534
count	-9.07541
▁작성하신	-9.07674
▁^^	-9.0788
▁그게	-9.07934
▁하	-9.07953
▁복사	-9.0799
▁백준	-9.08127
▁밖에	-9.08172
▁라인	-9.08349
▁빠르게	-9.08361
▁없고	-9.08411
▁||	-9.08493
이라면	-9.08657
▁걸리는	-9.08711
저도	-9.08714
▁값으로	-9.08744
겁니다	-9.08754
▁visit	-9.08778
▁연산이	-9.0879
▁하겠습니다	-9.08862
▁똑같이	-9.08901
▁이전	-9.08977
다가	-9.09055
▁이해했습니다	-9.09162
▁특정	-9.09236
도록	-9.0933
▁요청	-9.09489
▁뭐가	-9.09606
▁함수의	-9.09634
▁정렬을	-9.09652
하니까	-9.09703
▁문제에서는	-9.09846
▁후에	-9.09862
▁그러네요	-9.09872
▁검사	-9.09938
▁처리를	-9.10023
▁돌	-9.101
했는데	-9.10142
▁비슷한	-9.10187
▁e	-9.10204
▁29	-9.10224
▁end	-9.10302
하신	-9.10419
▁하시면	-9.10465
▁제한	-9.10493
▁만드는	-9.10524
해도	-9.10528
▁디버깅	-9.10701
▁추가했습니다	-9.11134
▁점수	-9.11142
▁들어가	-9.11335
▁나눈	-9.11368
▁파일	-9.11428
▁변경	-9.1161
ing	-9.11945
▁방향	-9.11984
▁w	-9.12012
----------------	-9.12126
▁공부	-9.12206
값	-9.12278
▁|	-9.12352
대	-9.12374
▁들어갈	-9.12411
I	-9.12425
▁푼	-9.12806
char	-9.12833
▁64	-9.12838
▁체	-9.12873
▁만들어서	-9.12923
▁부분에	-9.13003
▁보다	-9.13062
▁python	-9.131
▁나중에	-9.13437
▁위치를	-9.13655
반례	-9.13683
▁입력은	-9.13706
W	-9.13852
▁아닐까요	-9.13898
▁뜹니다	-9.13967
▁않기	-9.14217
▁찾아	-9.14223
▁두번째	-9.14231
▁맞네요	-9.14563
▁알려주셔서	-9.14568
30	-9.1457
▁똑같은	-9.14641
▁(1	-9.1471
/2	-9.14783
.....	-9.14943
저	-9.15105
▁or	-9.15113
▁업데이트	-9.15167
ed	-9.15171
ᅮᅮ	-9.1538
▁들어올	-9.1538
▁ᄏᄏᄏ	-9.15426
▁없기	-9.15483
▁자료구조	-9.15549
▁http	-9.15553
▁연산자	-9.15606
▁있게	-9.1563
=0	-9.15657
▁인덱스를	-9.1568
▁삭제	-9.15681
▁하게	-9.15779
▁최적화	-9.15858
▁출력하면	-9.1592
들은	-9.15946
):	-9.15955
16	-9.16223
en	-9.16366
▁애초에	-9.16373
▁들어오는	-9.16491
▁의미가	-9.16592
current	-9.16689
코드	-9.16735
string	-9.16901
▁내용을	-9.16976
여	-9.16984
함수	-9.1713
▁안되는	-9.17315
▁ᅲᅲᅲ	-9.17328
▁이상한	-9.17508
▁함수에서	-9.17688
▁것이고	-9.17723
▁101	-9.17749
answer	-9.1777
▁mid	-9.17842
▁되기	-9.17881
▁중에	-9.18043
▁H	-9.18062
▁중간에	-9.18149
안	-9.18293
▁무한	-9.18399
▁뜻입니다	-9.18405
▁출력한다	-9.185
건가요	-9.18579
▁초기화가	-9.18739
▁써서	-9.18742
▁써야	-9.18754
신	-9.18755
▁가능성이	-9.18771
그러면	-9.18873
▁확인해보세요	-9.18917
▁배수	-9.18939
▁=>	-9.18952
▁대로	-9.19065
▁왼쪽	-9.19169
99	-9.19356
현재	-9.19519
이랑	-9.19641
▁처럼	-9.19725
▁추천드립니다	-9.19811
▁버퍼	-9.19818
sum	-9.19939
▁본	-9.19963
with	-9.19966
▁헐	-9.20058
▁size	-9.20096
▁start	-9.2011
▁진행	-9.20162
▁생각이	-9.20188
▁34	-9.20191
질	-9.20327
▁써	-9.2034
▁못합니다	-9.20382
▁하루	-9.20434
▁위해서	-9.20442
▁예제를	-9.20446
▁걸립니다	-9.20546
▁위한	-9.20569
▁안에서	-9.20598
▁걸로	-9.20666
라도	-9.20702
▁음수	-9.20788
▁검색	-9.20807
▁했네요	-9.20814
일단	-9.20848
out	-9.20957
▁바꿔	-9.21222
push	-9.21285
var	-9.21306
rejudg	-9.2143
▁컴파일러	-9.21721
▁틀립니다	-9.21835
▁100000	-9.21898
▁오답	-9.21964
▁아닐	-9.2197
▁원하는	-9.22007
▁않았습니다	-9.22016
점	-9.2204
▁발생	-9.2211
^	-9.22129
▁기본	-9.22284
50	-9.22304
명	-9.22311
▁0)	-9.22424
겠네요	-9.22452
▁있으므로	-9.22548
▁크기는	-9.22632
▁영향	-9.22677
▁사용해야	-9.22933
에선	-9.22935
구	-9.2303
▁나오지	-9.23146
▁상태에서	-9.23205
er	-9.23253
▁생기는	-9.23273
▁위해서는	-9.23277
▁못한	-9.23298
▁F	-9.23341
(0)	-9.23419
back	-9.23551
▁좌표	-9.23717
▁array	-9.2379
듯	-9.23815
▁float	-9.24196
바이트	-9.24234
▁내에	-9.24442
▁to	-9.24444
▁못하고	-9.24488
cnt	-9.2453
까지만	-9.24559
▁에러는	-9.24685
▁해보세요	-9.2475
시면	-9.24802
40	-9.24929
▁난	-9.25128
▁dist	-9.25185
▁처음부터	-9.25194
으면	-9.25285
▁사람	-9.25341
▁간단한	-9.25408
배	-9.25426
▁수행	-9.25477
▁혹은	-9.25579
){	-9.25656
▁번호	-9.25672
▁자세히	-9.25699
http	-9.25772
리	-9.25935
배열	-9.25995
사	-9.26037
▁BOJ	-9.26121
pop	-9.26145
ans	-9.26232
▁아주	-9.26244
▁endl	-9.26272
이니	-9.26348
▁한다는	-9.26435
▁해당하는	-9.26444
▁노드	-9.26453
▁순서가	-9.266
하네요	-9.26649
log	-9.26819
▁연결	-9.26891
원	-9.2692
▁의미	-9.27017
min	-9.27097
▁사용한	-9.27248
▁거리가	-9.27302
0000000000000000	-9.27367
가지	-9.27536
▁봅니다	-9.27634
▁정확한	-9.27732
▁합	-9.2782
')	-9.27902
▁이런식으로	-9.27954
▁80	-9.27968
▁41	-9.28004
▁없다고	-9.28079
Y	-9.28167
▁생각해보세요	-9.2819
하니	-9.28285
▁35	-9.28294
▁입력받는	-9.28296
▁상관	-9.28296
▁않게	-9.28414
▁다릅니다	-9.28575
년	-9.28728
▁넣어	-9.28985
Q	-9.29151
▁탐색을	-9.29164
하면서	-9.29177
전	-9.29265
index	-9.29267
22	-9.29282
▁넣는	-9.29287
▁수의	-9.29485
org	-9.29554
▁TC	-9.29579
14	-9.29582
▁찾았습니다	-9.29603
false	-9.29877
나요	-9.29895
▁z	-9.30411
▁않을까	-9.3047
+1)	-9.30631
=0;	-9.30687
▁벽	-9.3087
▁주신	-9.30937
▁생각하고	-9.31014
▁별	-9.3109
▁했을	-9.31114
▁입력받은	-9.3113
▁입력에	-9.31229
번째줄	-9.31478
한다고	-9.31518
▁문제들	-9.31525
임	-9.31574
().	-9.31585
할때	-9.31663
~~	-9.31772
▁tmp	-9.31781
▁처리가	-9.31986
▁나서	-9.32049
적	-9.3206
▁output	-9.32163
▁단	-9.32221
회	-9.32251
▁넣을	-9.32313
kr	-9.32592
▁있었는데	-9.32665
▁하나를	-9.32682
G	-9.32697
append	-9.32777
▁42	-9.32779
문으로	-9.32782
▁제한이	-9.32833
▁것처럼	-9.32949
▁continue	-9.32949
▁들어가는	-9.33013
▁나오게	-9.33029
▁입력하면	-9.33113
24	-9.3316
▁틀리는	-9.33178
▁들어오면	-9.333
각	-9.33334
▁한다	-9.33366
▁1]	-9.33393
st	-9.33461
▁올려주신	-9.3356
▁sizeof	-9.33574
▁작동	-9.33575
▁이후에	-9.33613
▁쓰고	-9.33616
▁51	-9.33767
형으로	-9.33835
▁수정해서	-9.33931
▁선택	-9.33961
▁재채점	-9.34007
▁내용이	-9.34027
해당	-9.34076
▁맞지	-9.34084
▁어떨까요	-9.34107
▁이용해	-9.34204
source	-9.34257
▁갱신	-9.3454
▁됐습니다	-9.34555
되고	-9.34615
▁value	-9.34674
▁E	-9.34754
▁공백을	-9.34818
▁같고	-9.34888
▁시간복잡도는	-9.34891
▁배열로	-9.34938
▁1000000	-9.34944
▁변환	-9.34997
▁find	-9.35026
end	-9.35046
스	-9.35067
오	-9.35069
▁존재하지	-9.3517
15	-9.35208
▁사용하고	-9.35262
▁되므로	-9.35279
▁점이	-9.35327
▁어	-9.35329
더	-9.35385
▁코드와	-9.35463
▁behavior	-9.35575
치	-9.35582
▁반환	-9.35709
었네요	-9.35761
{	-9.35823
17	-9.35848
▁4,	-9.35887
▁삽입	-9.35897
▁만큼	-9.35899
이네요	-9.35914
건지	-9.35976
▁같아서	-9.35986
▁잘못되었습니다	-9.36037
▁불필요한	-9.36092
▁딱	-9.36097
▁동시에	-9.36257
scanf	-9.36421
[3]	-9.36484
▁과정을	-9.36627
▁정확하게	-9.36714
▁리턴	-9.36757
▁right	-9.3676
13	-9.36826
▁뿐입니다	-9.36972
▁감사하겠습니다	-9.37084
▁다익스트라	-9.37121
▁바꾸고	-9.37144
▁다만	-9.37272
번의	-9.37371
len	-9.37501
에도	-9.37589
▁주셔서	-9.37601
▁경로	-9.37654
▁없다는	-9.37909
▁문자열로	-9.37965
▁djm	-9.38082
................	-9.38152
25	-9.38343
▁만든	-9.38497
▁바꾸는	-9.38514
▁형식	-9.38549
▁구간	-9.3865
▁확인하는	-9.38688
▁예외	-9.38704
▁안되네요	-9.38794
했던	-9.39012
▁문제로	-9.39046
-2	-9.39075
▁상황	-9.39096
려	-9.39233
▁String	-9.39237
18	-9.39373
▁깊이	-9.39399
1)	-9.39499
1000	-9.39828
▁고려	-9.39913
▁V	-9.39981
▁하니	-9.4006
▁그렇다면	-9.401
다시	-9.4011
▁받았습니다	-9.40154
▁나누어	-9.40176
▁void	-9.40288
21	-9.40344
문의	-9.40396
ac	-9.40458
더라도	-9.40515
▁바꾸니	-9.40581
▁자연수	-9.40645
▁오답이	-9.40691
▁및	-9.40867
▁코드도	-9.40888
하려고	-9.40939
▁이전에	-9.40992
▁쓰지	-9.41004
▁내에서	-9.4103
],	-9.41118
▁발생한	-9.41142
▁된다는	-9.41228
▁left	-9.41436
칸	-9.4149
당	-9.41567
▁줄바꿈	-9.41584
▁때까지	-9.41609
▁물론	-9.41722
&	-9.41736
▁쓴	-9.41818
이다	-9.41914
▁보는	-9.41939
주	-9.41961
▁의해	-9.41995
▁알고리즘이	-9.42383
MB	-9.42388
▁궁금합니다	-9.42427
겠습니다	-9.42456
실	-9.42474
▁생각했는데	-9.42485
▁않네요	-9.42509
▁저장하는	-9.42517
▁오타	-9.42519
!!!!	-9.42587
▁읽고	-9.42649
▁순으로	-9.42731
▁말씀	-9.42761
▁하니까	-9.4282
▁앞으로	-9.42854
tie	-9.42865
▁필요는	-9.42901
▁주	-9.43028
▁표시	-9.43031
▁word	-9.4306
▁방식을	-9.43066
Z	-9.43087
▁90	-9.431
정	-9.43138
▁오차가	-9.433
▁null	-9.43336
어차피	-9.43339
▁작거나	-9.43341
▁정도로	-9.43423
▁자신	-9.43436
▁pypy	-9.43515
▁g	-9.43614
▁중요한	-9.43633
▁_	-9.43784
선	-9.4382
32	-9.43824
▁번호를	-9.43853
네	-9.43879
▁없네요	-9.43929
경우	-9.43955
ny	-9.43982
sync	-9.44359
|	-9.44384
▁mod	-9.44408
▁변수에	-9.44495
▁deque	-9.44563
start	-9.4457
▁초기화되지	-9.44615
▁가중치	-9.44627
▁한번에	-9.44628
▁동작	-9.44638
▁확인하고	-9.44786
▁문장	-9.44786
▁증가	-9.44889
▁벡터	-9.44949
들의	-9.45141
▁뭐	-9.45188
▁열	-9.45233
▁36	-9.4524
▁제거	-9.45264
왜	-9.45308
length	-9.45308
번줄	-9.45514
▁55	-9.45609
▁데	-9.45655
▁시간복잡도를	-9.45797
▁배열은	-9.45968
▁undefined	-9.46039
▁틀렸습니다가	-9.46054
했을	-9.46137
▁있겠네요	-9.46152
차	-9.46188
었습니다	-9.46402
▁단순	-9.46406
▁이상의	-9.46481
▁적이	-9.46516
다만	-9.46597
▁의도	-9.46598
▁쉬운	-9.46619
05	-9.46649
▁개행문자	-9.46671
▁소수점	-9.46673
▁해결됐습니다	-9.46678
▁친절한	-9.4668
▁받습니다	-9.4668
▁44	-9.46763
▁나와서	-9.46916
▁갯수	-9.46974
▁확인할	-9.47018
니다	-9.47019
했네요	-9.47049
▁없으면	-9.4711
점을	-9.47191
64	-9.47273
▁대해서는	-9.47294
▁생긴	-9.47453
거에요	-9.47549
▁느립니다	-9.4758
▁관련	-9.47613
▁대입	-9.47623
▁되겠죠	-9.47733
▁그렇지	-9.47747
▁내용	-9.47758
23	-9.4783
next	-9.47905
더니	-9.48032
▁지우고	-9.48158
▁문제인	-9.48162
▁맞은	-9.48324
▁True	-9.48404
▁아니	-9.48459
▁내부	-9.48523
▁생길	-9.48547
▁완전히	-9.48607
▁합이	-9.48611
▁고민	-9.48682
▁앞	-9.48703
▁제한을	-9.48749
▁저런	-9.48819
▁선생님	-9.48824
▁정렬이	-9.48888
▁사이즈	-9.48899
문에	-9.4895
▁올려주세요	-9.49281
▁알았는데	-9.49295
▁풀이를	-9.49344
▁경로를	-9.49361
▁-2	-9.49369
▁하신	-9.49429
temp	-9.49449
▁1,000,000	-9.49451
▁W	-9.4948
▁대충	-9.49524
▁짜	-9.49567
▁받아	-9.49764
▁엔터	-9.49781
26	-9.49799
걸로	-9.49902
드	-9.50018
▁48	-9.5011
▁정답은	-9.50136
75	-9.50169
▁루트	-9.50188
▁같은데요	-9.50218
▁2)	-9.50448
▁맞나요	-9.50589
2,	-9.50591
▁방식이	-9.5072
▁좋겠습니다	-9.50761
▁log	-9.50763
▁ᄒ	-9.50879
▁기본적으로	-9.50907
▁한다면	-9.50973
▁기준	-9.51142
▁부터	-9.51153
함수를	-9.51361
▁여기	-9.5139
▁갑니다	-9.51597
▁기능	-9.51712
단	-9.5184
▁케이스에서	-9.51871
월	-9.51916
▁요구하는	-9.52021
nx	-9.52025
▁결과는	-9.52142
▁밑에	-9.52175
));	-9.52225
▁case	-9.52226
이어야	-9.52379
▁읽어	-9.52407
▁뿐	-9.52415
▁이때	-9.52435
▁부분만	-9.52498
▁System	-9.52513
예제	-9.52587
▁빼	-9.52673
것이	-9.52721
▁클래스	-9.52758
▁문	-9.52791
▁형태	-9.52864
▁참고	-9.52956
▁체크를	-9.53018
▁False	-9.53026
▁없는데	-9.53033
한다는	-9.53122
▁import	-9.53188
19	-9.53201
▁자동으로	-9.53333
▁런타임에러가	-9.53374
▁검수	-9.53379
보다는	-9.53395
▁싶네요	-9.53428
이며	-9.53437
장	-9.53489
▁인해	-9.53515
이라서	-9.53558
▁라이브러리	-9.5359
`	-9.53641
▁컴퓨터	-9.53699
▁같을	-9.53754
그냥	-9.53763
▁I	-9.53787
▁고치면	-9.53834
▁자료형	-9.5399
▁'\0'	-9.54043
여기서	-9.54174
▁통과가	-9.54198
음	-9.54289
▁이해를	-9.54336
▁적은	-9.54373
▁이러한	-9.54381
▁생각해서	-9.54426
▁동적	-9.54451
려면	-9.54453
▁때의	-9.54477
▁node	-9.54506
어요	-9.5457
.1.	-9.54637
에서도	-9.54714
▁한다고	-9.54807
등	-9.54833
▁비교하는	-9.54921
▁오버플로우	-9.54929
▁참고하세요	-9.54938
▁넵	-9.54949
▁순간	-9.54954
▁출력하지	-9.5513
있는	-9.55189
▁자릿수	-9.55255
▁참조	-9.55381
▁수열	-9.55478
▁변수가	-9.55638
▁보장이	-9.55735
▁next	-9.55743
▁Integer	-9.55804
▁부모	-9.55941
▁43	-9.55992
한다	-9.56121
▁줄일	-9.56131
▁반대로	-9.56243
▁되는지	-9.5626
▁39	-9.5635
▁몰라서	-9.56357
]);	-9.56367
문제를	-9.56388
▁않지만	-9.56395
▁최솟값	-9.56397
▁풀이가	-9.56398
▁엄청	-9.56452
▁약간	-9.56468
▁아래에	-9.56529
▁NULL	-9.56549
J	-9.56607
꺼	-9.5661
▁되어서	-9.56642
모든	-9.56661
▁틀리게	-9.56707
▁찾아서	-9.56794
한다면	-9.56858
▁타입	-9.56912
▁만들고	-9.56957
짜리	-9.56977
▁최단거리	-9.56996
▁49	-9.56997
▁split	-9.56998
!!!!!!!!!!!!!!!!	-9.57074
▁남은	-9.57126
▁not	-9.57154
어떤	-9.57192
물론	-9.57192
▁없어	-9.57206
▁어려운	-9.57233
('	-9.57333
▁형태로	-9.57345
까요	-9.57413
▁위치에	-9.57467
그럼	-9.575
었는데	-9.57535
▁가능	-9.5755
에게	-9.57616
▁설명이	-9.57633
▁주석	-9.57698
▁일때	-9.57707
질문	-9.57721
▁굉장히	-9.57739
▁받게	-9.57947
▁받아서	-9.58113
▁위에서	-9.58285
▁시간복잡도	-9.58399
▁식	-9.58404
▁때에는	-9.58478
▁풀고	-9.58613
▁도는	-9.5864
위의	-9.58643
▁이므로	-9.58714
▁노드를	-9.58739
아마	-9.58752
▁기존	-9.58762
▁느린	-9.58774
▁되겠네요	-9.58916
▁이분	-9.5892
▁출력은	-9.58956
는지	-9.58978
▁적용	-9.59004
U	-9.59101
▁칸에	-9.59185
개로	-9.59231
▁긴	-9.59301
first	-9.59362
")	-9.59432
▁풀어	-9.59439
▁참	-9.59445
까	-9.59456
면서	-9.59563
▁요소	-9.59564
▁원	-9.59567
▁문제였네요	-9.59739
print	-9.59886
ᄏᄏ	-9.5989
▁같으면	-9.59906
▁정의	-9.59912
▁질문자님	-9.59916
▁만	-9.59981
▁38	-9.6002
▁넣어서	-9.60022
++;	-9.60128
▁일부	-9.60184
55	-9.60293
1111111111111111	-9.60365
▁한데	-9.60418
▁생각하면	-9.60441
▁있었군요	-9.60497
60	-9.6067
▁해결이	-9.60772
하시는	-9.60785
님이	-9.60785
▁비	-9.6084
언어	-9.61077
▁정보	-9.6109
▁소수가	-9.6111
되면	-9.61172
▁중에서	-9.61251
▁에러를	-9.61268
므로	-9.6127
▁메모리가	-9.61374
▁원인	-9.61448
▁999	-9.61516
▁방식	-9.61521
▁통과했습니다	-9.61537
boj	-9.61588
▁상태로	-9.61661
▁인덱스에	-9.61759
▁해결하였습니다	-9.61846
...?	-9.61905
▁행	-9.61922
이상	-9.62013
▁자기	-9.62058
long	-9.62088
▁'0'	-9.62106
하므로	-9.62107
▁확인했습니다	-9.62109
▁어디서	-9.62133
▁PyPy	-9.62154
▁참고로	-9.6222
하실	-9.62243
???	-9.62274
▁생깁니다	-9.62335
려고	-9.6236
▁방금	-9.62501
하나	-9.62504
▁있던	-9.6251
▁게시판	-9.6263
▁넣어보세요	-9.62698
▁52	-9.62702
▁음수가	-9.62801
배열을	-9.62932
[4]	-9.62961
하려면	-9.62985
▁위치가	-9.6307
▁생각하지	-9.63151
▁위와	-9.63189
▁말씀해주신	-9.63199
▁입력받고	-9.63218
▁소스코드	-9.6333
▁값에	-9.6343
▁+1	-9.63441
▁방향으로	-9.63447
▁출력되는	-9.63464
ᅮ	-9.63466
▁상수	-9.63486
▁각각의	-9.63676
▁번만	-9.63765
▁거리를	-9.63782
▁G	-9.63785
우	-9.63862
▁거에요	-9.63883
▁데이터는	-9.63995
.3.	-9.64005
set	-9.64101
다음	-9.6413
line	-9.64143
▁최대값	-9.64355
▁오차	-9.64392
@	-9.64405
27	-9.64422
▁아무리	-9.64505
▁memset	-9.64535
▁59	-9.64607
=2	-9.64621
▁케이스의	-9.64714
▁없지만	-9.64725
▁해줘야	-9.64742
~!	-9.64761
지금	-9.64789
▁풀면	-9.64806
▁힙	-9.64916
▁높은	-9.64964
건데	-9.65005
▁생성	-9.65136
▁꽤	-9.65208
▁정	-9.65305
번이	-9.65359
▁37	-9.6536
▁NO	-9.65372
▁바꾸니까	-9.65516
▁분이	-9.65694
▁간선	-9.65701
▁못하는	-9.65787
▁java	-9.65799
printf	-9.6588
비트	-9.65885
▁[]	-9.65889
▁맞을	-9.65958
보고	-9.65994
▁없으므로	-9.66031
▁Scanner	-9.66055
▁최대한	-9.66084
하겠습니다	-9.66126
▁그건	-9.66138
문은	-9.66167
▁`	-9.6619
▁오히려	-9.66192
번에	-9.66192
▁자세한	-9.66196
,,,	-9.66199
▁입력받을	-9.66258
▁graph	-9.66379
후	-9.66427
▁고려하지	-9.6647
▁sqrt	-9.66477
번을	-9.6648
▁속도	-9.6653
글자	-9.66547
▁해석	-9.66565
▁범위는	-9.66663
▁아아	-9.66709
//	-9.6671
▁소수를	-9.66724
else	-9.66765
▁마찬가지로	-9.66807
▁통해서	-9.66872
▁간선이	-9.66881
▁시작하는	-9.66888
▁많습니다	-9.66907
+1]	-9.66963
▁MAX	-9.67024
▁에라토스테네스의	-9.67036
▁주시면	-9.67045
▁자	-9.6705
▁계산하는	-9.67103
▁자바	-9.67132
▁500	-9.67184
.5	-9.67197
▁있음	-9.67287
▁두고	-9.67385
좋은	-9.67522
▁보니까	-9.67601
력	-9.67665
▁이분탐색	-9.67708
(1	-9.6771
▁카운트	-9.67757
▁풀어야	-9.67769
▁조건은	-9.67779
▁신청합니다	-9.67793
▁200	-9.67824
▁부탁드립니다	-9.6792
▁찾기	-9.67929
ex	-9.67945
MAX	-9.67951
▁fgets	-9.67957
▁서버	-9.67961
▁줄과	-9.68167
▁넘지	-9.68176
▁공유	-9.68185
▁const	-9.6819
▁정보를	-9.68206
▁정수로	-9.68237
▁빼고	-9.68312
▁바꿔야	-9.68353
▁제출하면	-9.68411
▁아니지만	-9.68425
▁괄호	-9.68464
▁올릴	-9.68466
result	-9.68551
▁방문한	-9.6856
러	-9.68579
▁unsigned	-9.68605
▁이용하여	-9.68712
▁최단	-9.68724
▁들어가게	-9.68777
좌표	-9.68803
BBBBBBBBBBBBBBBB	-9.68888
▁일반적으로	-9.68952
idx	-9.6902
▁감사해요	-9.69105
queue	-9.69124
▁시도	-9.6928
▁반례드립니다	-9.69301
▁로직	-9.69318
io	-9.69329
▁끝나는	-9.69338
▁지점	-9.69488
▁인덱스가	-9.69561
");	-9.69645
▁사이트	-9.69693
▁정상	-9.69745
while	-9.69762
29	-9.69768
▁합을	-9.69829
▁사이의	-9.69936
▁출력하게	-9.70065
▁정점을	-9.70079
problem	-9.70138
▁소스를	-9.70171
▁예외처리	-9.70325
▁그룹	-9.704
▁프로그램은	-9.70475
▁끝까지	-9.705
▁클	-9.70587
▁평균	-9.70623
로는	-9.7064
▁질문에	-9.70644
내	-9.70656
▁종류	-9.70658
(1,	-9.7084
▁bool	-9.70946
사실	-9.70985
▁건지	-9.71003
▁입력에서	-9.71014
▁저장할	-9.71082
▁정수를	-9.71161
▁설명을	-9.7119
없이	-9.71214
▁score	-9.71255
▁사용하여	-9.71353
▁발생하지	-9.71406
▁생각하시면	-9.71426
▁실제로는	-9.7144
해주시면	-9.71541
이하	-9.71574
구요	-9.71578
▁어디가	-9.71591
▁간단하게	-9.71603
▁돌리면	-9.71687
▁된다	-9.71749
좀	-9.71813
▁하나로	-9.71851
▁이중	-9.71854
▁받으면	-9.71967
집니다	-9.71976
33	-9.71981
▁나오고	-9.72047
▁자체를	-9.72098
jh	-9.72103
▁노드가	-9.72144
▁5,	-9.72284
help	-9.723
front	-9.72324
▁판정	-9.72364
▁같아	-9.72368
▁드리자면	-9.72444
get	-9.72463
(?)	-9.7249
▁되	-9.72516
node	-9.7254
▁구분	-9.72582
▁70	-9.72627
▁작성한	-9.72805
▁구조	-9.72895
간	-9.72918
▁상황이	-9.72945
46	-9.73035
▁과정이	-9.73047
31	-9.73055
함	-9.73092
▁제곱	-9.73136
▁봐야	-9.7323
▁이라고	-9.7329
▁메시지	-9.73292
▁INF	-9.73293
▁토마토	-9.73317
▁봤는데	-9.7332
으니	-9.73446
▁경우에도	-9.73457
되	-9.73521
하며	-9.73559
▁확실히	-9.73614
48	-9.73639
▁오타가	-9.73701
28	-9.7371
▁아래의	-9.73728
▁절대	-9.7379
▁않는다	-9.73885
▁땐	-9.7398
▁대략	-9.73995
▁열심히	-9.74016
▁문제인지	-9.74023
되기	-9.74064
▁나누는	-9.74099
▁아무런	-9.74168
▁있도록	-9.74171
▁조건문	-9.74196
▁이상하게	-9.74352
▁대신에	-9.74391
▁보이는	-9.74395
▁인자로	-9.74399
05013	-9.74481
▁나오면	-9.74483
▁없다	-9.74527
96	-9.74568
▁되나요	-9.74587
▁예제는	-9.7464
▁판단	-9.74698
하거나	-9.74741
되는데	-9.74761
▁한번만	-9.74862
or	-9.74864
▁적어도	-9.74866
▁돌면서	-9.74867
▁일반적인	-9.75056
▁백준에서	-9.75128
까지는	-9.7516
▁계산을	-9.75162
▁동적할당	-9.75251
여야	-9.75539
▁뜨는	-9.75553
▁집	-9.75611
▁질문이	-9.75646
▁주는	-9.75993
더라구요	-9.76064
▁배워갑니다	-9.76125
▁케이스마다	-9.76132
▁65	-9.76138
어서	-9.76159
▁경로가	-9.76288
▁다를	-9.76318
▁아니기	-9.7636
▁번에	-9.76434
▁들어있는	-9.7646
▁첫째	-9.76551
▁[1,	-9.76566
▁idx	-9.76604
▁몰랐네요	-9.76725
개만	-9.76729
▁o	-9.76736
▁올바르게	-9.7675
▁자체	-9.76843
▁아닐까	-9.76872
▁번호가	-9.76899
▁조합	-9.77013
여서	-9.77038
문제에서	-9.77086
▁사용하시면	-9.77098
▁감사합니당	-9.77185
▁자료형을	-9.77283
▁나네요	-9.77423
성	-9.77495
▁아마도	-9.77513
▁존재하는	-9.77589
▁data	-9.77628
해보시면	-9.77645
▁동안	-9.77667
▁없으니	-9.77671
▁표현할	-9.77672
번은	-9.7777
▁연산은	-9.77808
▁홀수	-9.7788
▁주소	-9.77956
로만	-9.77962
▁역할	-9.77992
▁재귀함수	-9.78014
▁함수에	-9.78065
▁예상	-9.78073
▁입력값	-9.7821
cin	-9.78236
▁[0,	-9.7825
▁변수로	-9.78264
배열의	-9.78273
▁올려	-9.78378
▁짧은	-9.78402
▁문제도	-9.78438
▁만족하는	-9.78476
▁여기에	-9.78507
부분	-9.78577
일까요	-9.78598
▁하는지	-9.78611
▁높이	-9.78684
*(	-9.78691
▁리스트에	-9.78704
▁답글	-9.78709
▁상당히	-9.78719
▁검색을	-9.78721
▁나타내는	-9.7884
며	-9.78868
▁여러번	-9.78877
정도	-9.78971
▁나왔습니다	-9.78997
▁약수	-9.79028
▁error	-9.7904
▁집합	-9.79053
▁고맙습니다	-9.7912
▁test	-9.79153
▁학생	-9.79159
▁보이네요	-9.79167
▁간선을	-9.79197
▁ᅮ	-9.79206
▁메소드	-9.79219
▁때만	-9.79267
▁프로그래밍	-9.79325
▁지문	-9.79395
▁ᄏᄏᄏᄏ	-9.79395
▁문제였습니다	-9.79414
▁나지	-9.79453
41	-9.79461
▁들어서	-9.79517
▁힌트	-9.79523
-1,	-9.79633
▁스택에	-9.79638
▁완전	-9.79653
▁없는지	-9.7969
▁생각됩니다	-9.7975
▁들어간	-9.79799
▁표준	-9.79881
▁순서로	-9.79904
▁들	-9.79997
▁복잡도가	-9.8002
▁자리수	-9.80029
▁Q	-9.80043
▁통과됩니다	-9.80047
줄에서	-9.80047
수도	-9.80097
▁문법	-9.80099
▁존재	-9.80102
화	-9.8023
라인	-9.80275
▁읽어보세요	-9.80321
▁알았습니다	-9.80328
▁이라는	-9.80392
▁들면	-9.80426
수가	-9.80463
▁케이스는	-9.80527
/3	-9.80534
▁Main	-9.80567
끼리	-9.80577
▁로직을	-9.80723
▁포함	-9.80724
▁처리할	-9.80766
겠지만	-9.80859
▁해봤는데	-9.80882
▁써도	-9.80947
▁number	-9.8121
▁데에	-9.81266
▁단어	-9.8127
+2	-9.8135
▁스스로	-9.81393
▁해결했어요	-9.81405
▁영역	-9.81453
▁전역	-9.81463
kg	-9.81499
있습니다	-9.81542
▁변	-9.81569
▁아니라면	-9.81798
▁하나가	-9.81822
▁그럴	-9.81835
49	-9.81934
▁말은	-9.81939
▁런타임에러	-9.82068
▁난이도	-9.82123
▁st	-9.82142
줄에	-9.82182
보	-9.82426
▁상	-9.82456
했더니	-9.82549
▁예제가	-9.82555
▁문제점	-9.82617
wiki	-9.82686
▁비교를	-9.82781
▁계산할	-9.82879
참고로	-9.8295
만개	-9.83076
▁key	-9.83136
▁top	-9.83138
▁데이터에	-9.83226
이거	-9.83228
▁정답처리	-9.83261
▁그거	-9.83305
[-1]	-9.83327
▁지적	-9.83408
vector	-9.83439
본	-9.8349
▁최댓값이	-9.83527
▁정점이	-9.83583
▁parent	-9.83657
▁BufferedReader	-9.83671
▁짝수	-9.83676
▁이용한	-9.83687
▁카드	-9.83705
▁ios	-9.83709
▁가까운	-9.83713
▁들어갑니다	-9.83726
▁관계	-9.83768
▁오류를	-9.83824
▁쿼리	-9.83852
만으로	-9.83917
▁얼마	-9.83952
▁봐도	-9.84031
▁된다고	-9.84074
(2)	-9.84096
▁수정하면	-9.84142
▁이면	-9.842
▁등을	-9.8421
▁가정	-9.84225
▁작성자님	-9.84302
▁연습	-9.84317
으	-9.84322
▁양	-9.84356
▁함께	-9.84406
▁접근하는	-9.84429
▁저지	-9.84431
▁큐에서	-9.84437
▁공백으로	-9.84444
▁봅시다	-9.84476
▁여러개	-9.84478
그래도	-9.84495
▁지역	-9.84508
▁61	-9.84601
▁커서	-9.84604
거죠	-9.84869
▁중간	-9.8489
93	-9.85158
▁알게	-9.8516
▁없다면	-9.8518
것을	-9.85238
▁가로	-9.85437
▁존재합니다	-9.85508
println	-9.85553
▁54	-9.8564
▁해요	-9.85653
▁글에	-9.85655
거라	-9.85702
▁말씀하신대로	-9.85822
부	-9.85848
▁크기의	-9.85888
되어야	-9.86001
▁질문글	-9.8604
▁사용합니다	-9.86061
▁res	-9.86091
▁나머지를	-9.86153
▁이해하고	-9.86198
▁블로그	-9.86255
▁이상이	-9.86339
▁임의의	-9.86386
▁공식	-9.86388
▁적	-9.86414
▁띄어쓰기	-9.86506
▁곳에	-9.86629
▁최댓값	-9.86664
▁뭔지	-9.8669
달	-9.86701
▁들어가서	-9.86726
]]	-9.86762
말고	-9.8685
▁공개	-9.86873
▁한참	-9.87014
▁정말로	-9.87213
이니까	-9.87341
NULL	-9.87356
ᄏᄏᄏ	-9.87525
][0]	-9.87566
▁우리	-9.87585
▁되세요	-9.87659
비	-9.87764
▁바꾼	-9.87797
▁개수는	-9.87883
▁할까요	-9.87936
▁반환합니다	-9.88031
▁풀었는데	-9.88032
▁탈출	-9.88081
▁하더라도	-9.88114
▁보지	-9.88247
▁때도	-9.88264
▁생각해보니	-9.88408
▁계속해서	-9.88414
▁대체	-9.88439
▁해보겠습니다	-9.88491
▁넘어가는	-9.88534
ᄒ	-9.88573
▁이름	-9.88623
▁명령	-9.8864
cur	-9.88695
▁얼마나	-9.88736
▁제외한	-9.88778
▁단위로	-9.88867
▁그림	-9.88926
▁맞았다고	-9.89054
▁overflow	-9.89065
▁게시판에	-9.89076
▁있죠	-9.89102
▁사용해	-9.89129
▁01	-9.89215
▁넘어갈	-9.89252
65	-9.89369
▁쓰시면	-9.89485
▁고쳐서	-9.8952
▁곳이	-9.89604
▁된다면	-9.89665
해요	-9.89814
▁compare	-9.89821
▁가지는	-9.89854
▁이용하면	-9.89895
second	-9.89928
▁횟수가	-9.90177
▁어떠한	-9.90256
▁loop	-9.90271
▁것인지	-9.90411
51	-9.90436
▁어디	-9.90503
▁정리	-9.90549
▁번역	-9.90578
▁elif	-9.90709
▁((	-9.90779
▁인접한	-9.90781
▁주소를	-9.90834
▁함수로	-9.90844
▁큽니다	-9.90871
▁크거나	-9.90881
▁여부를	-9.90888
▁out	-9.90899
▁동작을	-9.90912
▁도시	-9.90972
▁제출하신	-9.91087
▁그리디	-9.91188
▁상황에서	-9.91215
▁찾고	-9.91239
▁tree	-9.91345
▁넣은	-9.91367
▁사	-9.91407
중에	-9.91425
공백	-9.91426
al	-9.91515
▁존재할	-9.91566
식	-9.91603
▁알고리즘은	-9.91656
코드를	-9.91676
▁있으며	-9.91685
이게	-9.91698
▁동전	-9.91715
▁사람의	-9.91738
▁하셨는데	-9.91775
▁9999	-9.91812
▁쓰레기	-9.9191
▁로직이	-9.9192
▁제출한	-9.91925
▁하나하나	-9.91946
되었습니다	-9.91961
*2	-9.91989
세	-9.92082
▁실수가	-9.92102
▁두개	-9.92141
▁저장하고	-9.92169
틀렸습니다	-9.92192
▁속도가	-9.92284
▁입력된	-9.92298
주시면	-9.92361
▁의견	-9.92389
▁과정	-9.9243
▁찾은	-9.92466
▁칸이	-9.92469
▁인데	-9.92479
져	-9.9253
▁돌고	-9.92584
▁결정	-9.92586
▁오늘	-9.92736
le	-9.92768
90	-9.92795
▁대부분	-9.928
ᅲᅲᅲ	-9.92828
▁메서드	-9.92837
▁차	-9.9285
sys	-9.92971
▁46	-9.93014
▁입력되는	-9.93052
하세요	-9.93053
▁remove	-9.9306
했다고	-9.93095
▁걸까요	-9.93193
▁나머지가	-9.93194
▁기본적인	-9.93258
▁짠	-9.93297
▁가리키는	-9.93299
▁랜덤	-9.93316
▁문장이	-9.93318
▁별로	-9.93341
▁heap	-9.93392
▁복잡도	-9.93519
▁맞다고	-9.93543
▁얘기	-9.93573
▁비용	-9.93583
base	-9.93634
▁되지만	-9.93658
++){	-9.93661
▁(1)	-9.93668
▁논리	-9.93672
59	-9.93741
첫	-9.93776
▁cost	-9.93804
해보세요	-9.939
▁만족	-9.93905
해주셔서	-9.93925
▁올린	-9.93946
▁정수가	-9.93946
▁주어지지	-9.93971
▁없어요	-9.9399
is	-9.94089
컴파일	-9.94094
▁활용	-9.94096
▁글이	-9.94104
것도	-9.94128
▁이유로	-9.94168
▁수정하니	-9.94195
▁모르겠는데	-9.94204
▁돌려	-9.94256
▁YES	-9.94283
님의	-9.94332
▁버전	-9.94343
▁^	-9.94399
▁56	-9.94461
▁최소값	-9.94463
▁원인은	-9.9447
▁해주는	-9.94582
▁힌트를	-9.94583
▁연결된	-9.9464
▁시간은	-9.94656
top	-9.9472
▁무한루프	-9.94729
to	-9.94772
▁모르는	-9.94781
▁받지	-9.94868
▁걸릴	-9.94961
▁정수형	-9.95001
▁놓고	-9.95015
▁하는게	-9.95024
spot	-9.95039
▁않았지만	-9.95046
▁의도한	-9.95046
▁추천합니다	-9.9508
▁이루어진	-9.95086
▁나와요	-9.95142
▁하셔야	-9.95185
▁gets	-9.95191
▁처리하는	-9.95214
초에	-9.95217
▁형	-9.95266
또	-9.95284
▁별개로	-9.95298
38	-9.95309
▁대부분의	-9.95319
▁둘다	-9.95336
▁47	-9.95372
▁틀렸는지	-9.95433
▁정답으로	-9.95502
▁(1,	-9.95566
▁자체는	-9.95568
00	-9.95616
▁뜻이	-9.95679
어야	-9.95751
▁케이스에	-9.95881
▁해주셔야	-9.95907
▁구현할	-9.95954
▁못했습니다	-9.96038
[5]	-9.96064
▁Java	-9.96138
>>	-9.96169
▁구현이	-9.96193
▁숫자로	-9.96248
▁자주	-9.96282
▁곱	-9.96285
▁불	-9.96334
▁구성	-9.96409
());	-9.96417
▁반	-9.96439
▁반환하는	-9.96449
▁보기	-9.96453
▁환경	-9.96487
▁flush	-9.96515
▁재	-9.96543
▁300	-9.96587
▁것보다	-9.96612
▁아닌가	-9.96626
▁넘는	-9.96638
정렬	-9.96684
▁최댓값을	-9.96878
▁예제도	-9.96959
▁무	-9.96982
▁불구하고	-9.96992
▁다들	-9.96997
▁바꿔보세요	-9.96999
▁부	-9.97081
▁변수는	-9.97098
해결	-9.97127
▁getchar	-9.97264
▁하므로	-9.97266
▁time	-9.97286
▁바	-9.97293
▁환경에서	-9.97315
▁이동할	-9.97331
▁구한	-9.97375
goodday	-9.97388
▁아닌지	-9.97407
▁넣었을	-9.97535
▁제외	-9.97538
▁식을	-9.97556
잘	-9.97642
34	-9.97647
▁반올림	-9.97759
▁남깁니다	-9.97785
▁무엇인지	-9.97796
▁마다	-9.97809
▁인접	-9.97826
000	-9.97843
▁공간을	-9.97865
▁53	-9.97879
▁문자열은	-9.97966
:1	-9.98079
▁자료	-9.98191
98	-9.98302
44	-9.98304
▁못해서	-9.98305
▁u	-9.98378
▁가진	-9.98403
하셔서	-9.98455
▁81	-9.98526
39	-9.98547
▁오는	-9.98561
▁주어질	-9.98565
▁모릅니다	-9.98583
▁복붙	-9.98626
▁나무	-9.9864
▁간선의	-9.98641
▁63	-9.98642
▁거죠	-9.98647
cout	-9.98648
▁시간에	-9.98682
▁내용은	-9.98683
하나요	-9.98683
추가로	-9.98822
▁수정한	-9.98845
▁더하는	-9.98879
▁것이기	-9.98904
▁받아야	-9.98947
▁바꿀	-9.98984
▁어렵습니다	-9.98988
▁부분도	-9.98991
ocode	-9.98995
▁순	-9.99001
▁nx	-9.99186
word	-9.99195
79	-9.99197
하다가	-9.99214
:)	-9.99294
github	-9.99387
▁보면서	-9.99415
초가	-9.99422
▁TLE	-9.99447
▁파이썬으로	-9.99477
▁키	-9.99615
▁사람들	-9.99622
new	-9.99687
▁답변해주셔서	-9.99698
▁97	-9.99726
▁하나요	-9.99843
▁그것	-9.99889
▁인덱스는	-9.99921
▁중복된	-10
▁type	-10.0009
▁백트래킹	-10.0009
▁발견	-10.0012
▁128	-10.0014
▁생각해보면	-10.0021
▁하여	-10.0025
▁뭘	-10.0025
▁pair	-10.0027
▁고쳐야	-10.0032
▁분들이	-10.0038
▁없게	-10.0048
97	-10.0057
▁양수	-10.0058
▁않도록	-10.0061
▁선언한	-10.0063
▁사이클이	-10.0064
▁빨리	-10.0069
▁반복문이	-10.0076
▁와우	-10.0109
▁Y	-10.0114
▁거라고	-10.0128
이에요	-10.0135
▁first	-10.0135
bound	-10.0137
▁**	-10.0144
Inc	-10.0146
▁풀어서	-10.0158
!=	-10.0161
▁올리신	-10.0162
▁상관이	-10.0165
▁ᅲᅲᅲᅲ	-10.0171
▁메모이제이션	-10.0174
가요	-10.0174
바로	-10.018
ab	-10.0183
stackoverflow	-10.0184
수정	-10.0186
▁답변이	-10.0187
답은	-10.0188
란	-10.019
▁적어	-10.0205
▁무엇이	-10.0205
▁풀기	-10.0216
메모리	-10.0218
▁고쳐	-10.0219
▁cur	-10.0226
만을	-10.0235
▁아이디어	-10.0238
▁ny	-10.024
▁첨부	-10.0241
▁차이는	-10.0242
▁온라인	-10.0242
▁드렸습니다	-10.0251
readLine	-10.0262
double	-10.0262
▁체크하는	-10.0269
▁맞았네요	-10.027
▁이용	-10.0274
▁나오는지	-10.0284
▁부족한	-10.0297
▁비해	-10.0307
▁혹시나	-10.0308
▁초기	-10.0309
▁효율적인	-10.0314
37	-10.0316
▁되게	-10.0316
▁틀리네요	-10.0318
▁댓글을	-10.0321
▁57	-10.0322
우선	-10.0348
▁append	-10.0349
▁선언하면	-10.0354
걸까요	-10.036
▁들어가면	-10.0362
▁이해한	-10.0366
▁단어가	-10.0368
안에	-10.0381
▁최적	-10.0391
열	-10.0394
재	-10.0394
같이	-10.0401
▁올	-10.0408
43	-10.0408
▁문자로	-10.0408
▁끝난	-10.0419
바	-10.0425
▁전달	-10.0429
▁계산이	-10.0432
▁습관	-10.0437
▁작업을	-10.0437
겠군요	-10.0442
▁구현하는	-10.0444
▁ᄃᄃ	-10.0449
억번	-10.0452
▁널문자	-10.0459
▁막	-10.0461
▁오름차순으로	-10.0462
지를	-10.0467
▁malloc	-10.0474
되서	-10.0479
--	-10.0485
▁모	-10.0489
▁해주면	-10.0496
번줄에서	-10.0498
▁보	-10.0504
▁비트	-10.0515
▁no	-10.0517
▁이것	-10.0519
61	-10.0521
아니면	-10.0524
▁않는다는	-10.053
해주면	-10.0532
▁알고리즘으로	-10.0532
▁의미합니다	-10.0532
▁지금은	-10.0533
해주는	-10.0538
▁간	-10.0539
▁수밖에	-10.0541
▁복잡도를	-10.0542
▁추가하는	-10.0543
▁실행이	-10.0546
(0,	-10.0548
▁도착	-10.0564
▁추가해서	-10.0565
이런식으로	-10.0566
▁알았네요	-10.0573
▁참고하시면	-10.0573
▁노드의	-10.0576
▁예	-10.0577
▁말씀대로	-10.0578
▁되서	-10.0578
▁전역변수	-10.0592
check	-10.0596
53	-10.0596
연산	-10.0599
층	-10.0602
mid	-10.0605
번에서	-10.0613
123	-10.0613
마	-10.0614
▁없음	-10.0615
결과	-10.0617
이제	-10.0618
▁딱히	-10.0621
행의	-10.0623
▁출력되어야	-10.0623
▁되도록	-10.0624
▁순회	-10.0634
▁class	-10.0638
▁발생하게	-10.0638
▁알려주신	-10.0643
▁맞는지	-10.0654
▁이야기	-10.0657
▁구구구구	-10.0659
▁알려주실	-10.0675
▁total	-10.0681
js	-10.0686
+1,	-10.0687
it	-10.0687
▁사람들이	-10.0688
▁하나는	-10.0689
▁-3	-10.0693
▁않으므로	-10.0694
▁편	-10.0694
▁돌리는	-10.0701
▁말씀하시는	-10.0702
하는게	-10.0705
▁무게	-10.0709
▁시작해서	-10.0714
▁무시	-10.0722
▁푸신	-10.0724
것같습니다	-10.0724
▁테케	-10.0725
▁초기값	-10.0727
▁구구	-10.073
트	-10.073
▁하실	-10.0736
다니	-10.0736
▁물	-10.0737
70	-10.074
였습니다	-10.0741
▁;	-10.0746
▁곱셈	-10.075
▁구하고	-10.0757
▁자식	-10.0763
▁개선	-10.0766
▁단어의	-10.0768
▁gcc	-10.0772
▁ᄒᄒᄒ	-10.0772
ko	-10.0774
▁라인에서	-10.0808
▁좀더	-10.0809
▁공간	-10.0818
보니	-10.0823
▁읽기	-10.0825
▁빠릅니다	-10.0825
▁찾아보세요	-10.0826
▁불가능합니다	-10.0829
▁아래처럼	-10.0835
▁맞는데	-10.0837
▁이것도	-10.0838
▁방	-10.084
▁조건문을	-10.0841
▁지정	-10.0846
▁흠	-10.0848
▁맞	-10.0857
▁조건에서	-10.0859
▁힘들	-10.086
▁피보나치	-10.0862
▁분류	-10.0863
▁5000	-10.0867
python	-10.0873
▁알겠습니다	-10.0878
▁책	-10.0879
▁드디어	-10.0881
▁모듈	-10.0884
▁pow	-10.0886
es	-10.0888
▁지역변수	-10.0893
▁이번	-10.0893
▁했더니	-10.0906
at	-10.0916
77	-10.0916
Input	-10.0917
▁생각해보시면	-10.0919
▁보시는	-10.0919
▁들어가지	-10.0919
▁출력되지	-10.0927
▁수정해	-10.0927
▁감사	-10.0937
문자열	-10.0939
▁좌표를	-10.094
▁받기	-10.094
부분을	-10.0946
길	-10.0969
EC	-10.0978
▁마시고	-10.0979
글	-10.0981
▁하면서	-10.0989
36	-10.0994
▁해주세요	-10.0995
▁오름차순	-10.0997
▁바꿔도	-10.0998
42	-10.0999
▁정렬된	-10.1001
etrecursionlimit	-10.1004
10000	-10.1006
▁판별	-10.1006
▁모르고	-10.1007
main	-10.1008
▁추가하면	-10.1009
▁나와	-10.1011
운	-10.1016
▁1001	-10.1021
가장	-10.1025
09	-10.1027
▁보장	-10.103
▁기록	-10.103
▁수정하고	-10.1031
▁static	-10.1032
▁이고	-10.1039
▁읽는	-10.1041
▁"\	-10.105
visited	-10.1054
▁있군요	-10.106
문제는	-10.1063
최대	-10.1069
만에	-10.1088
▁안되고	-10.109
▁얻을	-10.1091
▁주어지면	-10.1095
▁코드처럼	-10.1097
tmp	-10.11
]=	-10.1101
▁'.'	-10.1111
▁같지	-10.1114
▁gcd	-10.1116
▁통과할	-10.1127
▁보이는데	-10.1136
▁세로	-10.1145
▁두번	-10.1146
시는	-10.1147
▁행렬	-10.1155
텐데	-10.1157
▁출제자	-10.1158
에요	-10.1167
66	-10.1172
▁비교할	-10.1175
▁생각하는	-10.1181
▁생각한	-10.1182
▁있었던	-10.1183
▁틀릴	-10.1184
▁틀렸네요	-10.1188
▁단계	-10.1189
String	-10.119
▁문장을	-10.1191
보면	-10.1191
▁회전	-10.1192
▁바꾸어	-10.1201
되네요	-10.1213
52	-10.1214
행에서	-10.1216
▁쓰레기값이	-10.1218
▁여러가지	-10.1226
▁형식이	-10.1227
▁만들면	-10.1233
data	-10.1234
▁방식은	-10.1235
했	-10.1236
▁정해	-10.1242
▁찾지	-10.1249
▁말하는	-10.1252
▁경우엔	-10.1256
▁작을	-10.1256
▁생각보다	-10.1259
▁성공	-10.1265
마지막	-10.1277
만한	-10.128
▁재귀호출	-10.1288
날	-10.1288
▁경우만	-10.1292
숫자	-10.1295
▁필요할	-10.1301
id	-10.1301
▁돌게	-10.1303
방향	-10.1304
더군요	-10.1311
▁flag	-10.1318
하시고	-10.133
▁by	-10.1331
Output	-10.1332
결국	-10.1332
03	-10.134
한번	-10.1343
번째줄에	-10.1351
▁sc	-10.1362
길이	-10.1364
=3	-10.1364
▁것인데	-10.1365
▁공	-10.137
승	-10.1375
▁탐색하는	-10.1387
▁length	-10.1395
▁들어가야	-10.1396
▁배열에서	-10.1402
번과	-10.1409
▁비용이	-10.1411
▁것이죠	-10.1413
하긴	-10.1413
▁pq	-10.1414
▁감사합니다ᅲᅲ	-10.1419
▁round	-10.1421
▁예정입니다	-10.1422
Answer	-10.1426
▁사전순으로	-10.1429
▁공간이	-10.1438
번만	-10.1439
▁이용하는	-10.1445
네용	-10.1457
▁모르겠어요	-10.1464
62	-10.1464
해주세요	-10.1466
dfs	-10.1468
▁없	-10.147
▁내부에서	-10.1474
이걸	-10.1479
▁리스트로	-10.1483
▁사용하기	-10.1489
세요	-10.149
함수가	-10.149
.4	-10.1496
▁고려해야	-10.15
줄의	-10.1509
▁더한	-10.1511
▁벗어나	-10.1514
▁증가하는	-10.1519
▁지금까지	-10.1521
동	-10.1521
▁작업	-10.1523
냐	-10.1525
▁전역변수로	-10.1526
▁복사해서	-10.1526
35	-10.1539
logN	-10.1539
▁완료	-10.1539
▁하려면	-10.1543
▁복잡도는	-10.1545
▁크면	-10.1549
▁생각도	-10.1549
것은	-10.1551
▁123	-10.1558
▁있겠죠	-10.1559
▁free	-10.1567
▁파이썬의	-10.1569
▁그러나	-10.1575
▁드리겠습니다	-10.1576
▁추천	-10.1577
▁세그먼트	-10.1578
대신	-10.1581
▁같지만	-10.1588
▁줄부터	-10.1593
▁풀이는	-10.1605
wikipedia	-10.1606
▁찾아야	-10.1616
번줄에	-10.1619
std	-10.1622
▁두분	-10.1623
▁명령어	-10.1625
▁기존의	-10.1627
▁안되서	-10.1636
67	-10.1643
값은	-10.1646
▁분리	-10.165
형을	-10.1651
▁알아	-10.1652
▁모르지만	-10.1654
57	-10.1655
▁오버플로	-10.1659
그렇다면	-10.1667
▁인풋	-10.1671
;}	-10.1672
셔야	-10.1682
▁버퍼에	-10.1684
▁대문자	-10.1685
▁유지	-10.1687
▁기	-10.1688
▁합시다	-10.1689
▁편이	-10.169
▁100,000	-10.1694
▁6,	-10.1698
▁모르겠으나	-10.1702
했는지	-10.1705
▁시간초과를	-10.1708
stack	-10.1716
▁않았기	-10.1717
NlogN	-10.1729
범위	-10.173
45	-10.1737
하셔야	-10.1745
▁쓰	-10.1749
▁자꾸	-10.1758
▁보겠습니다	-10.1763
▁추측	-10.1764
▁입출력을	-10.1764
시켜	-10.1766
▁BufferedWriter	-10.1769
▁실패	-10.177
▁2^	-10.1772
셔서	-10.1773
54	-10.1777
▁하시는	-10.178
▁접근할	-10.1781
80	-10.1782
만큼의	-10.1783
▁의미입니다	-10.1785
aaaaaaaaaaaaaaaa	-10.1793
했기	-10.1798
▁남겨주세요	-10.1799
▁싶은	-10.1805
▁감사드려요	-10.1806
▁새	-10.181
begin	-10.1813
▁58	-10.1818
▁도와	-10.182
▁숫자의	-10.182
▁이루어져	-10.1829
▁Z	-10.1837
▁담을	-10.1838
left	-10.1844
mod	-10.1845
▁바뀐	-10.1847
해줘야	-10.1848
▁생각했습니다	-10.1857
startlink	-10.1858
▁혼자	-10.186
문제의	-10.1861
▁배우고	-10.1863
알고리즘	-10.1867
▁qsort	-10.1873
거든요	-10.1876
변수	-10.1877
미	-10.1879
▁출력한	-10.1879
▁확인을	-10.188
▁안될	-10.1893
▁덧셈	-10.1909
▁감	-10.1914
개씩	-10.1916
▁이기	-10.1922
▁길	-10.1924
▁참고해서	-10.1926
▁조금만	-10.1931
▁건데	-10.1938
63	-10.1943
▁규칙을	-10.1943
▁있겠지만	-10.1947
▁동일하게	-10.1948
▁상태가	-10.195
▁추가해	-10.1959
▁컴파일러가	-10.1963
▁스페셜	-10.1973
▁상관없이	-10.1973
",&	-10.1976
▁의미를	-10.1984
▁식이	-10.1985
▁사용하시는	-10.1987
▁줄로	-10.1989
이미	-10.199
▁나눠서	-10.2001
time	-10.2003
더라고요	-10.2007
▁작성해	-10.2008
▁해주시면	-10.2011
채점	-10.2015
였군요	-10.2018
였네요	-10.2022
▁66	-10.2024
**	-10.2025
위에	-10.2029
▁드릴게요	-10.2032
▁형식으로	-10.2035
없	-10.2043
’	-10.2045
▁바꾸시면	-10.2045
▁좋겠네요	-10.2046
▁증명	-10.2049
▁구해야	-10.2062
▁원소들	-10.2063
맨	-10.2064
▁만족하지	-10.2066
▁};	-10.2069
▁생각할	-10.2078
▁윗	-10.208
있	-10.2082
▁넣어도	-10.2082
▁제외하고	-10.2084
▁400	-10.2086
▁읽을	-10.2095
cppreference	-10.2095
되므로	-10.2099
▁알파벳이	-10.2104
▁팀	-10.2109
▁알아서	-10.2111
테스트	-10.2113
▁불가능한	-10.2114
▁출발	-10.2115
▁제출하니	-10.2118
▁StringBuilder	-10.2119
▁명시	-10.212
으로는	-10.2121
▁아직도	-10.2122
너무	-10.2135
▁되어있습니다	-10.214
▁다시한번	-10.2142
▁검사하는	-10.2144
▁방문할	-10.2144
47	-10.2148
▁의미하는	-10.2151
▁달리	-10.2153
▁있긴	-10.2154
▁나오기	-10.2156
▁비슷하게	-10.2158
줄을	-10.2159
▁재귀로	-10.2162
▁주어졌을	-10.2163
▁있어도	-10.2163
런타임	-10.2164
▁문자는	-10.2164
▁111	-10.2167
방	-10.2169
▁로컬에서	-10.2171
▁비교해서	-10.2173
▁달아	-10.2175
▁봤을	-10.2176
▁이름을	-10.2179
되어서	-10.2188
실제로	-10.2192
(3)	-10.2199
리스트	-10.22
▁대해서도	-10.2205
▁퀵소트	-10.2207
▁값과	-10.2208
▁벗어나는	-10.2211
나서	-10.2217
▁블록	-10.2217
void	-10.2217
▁실행되지	-10.2217
▁앞의	-10.2218
으므로	-10.2228
▁예시로	-10.2229
▁텐데	-10.2233
▁고쳤	-10.2242
▁그러니까	-10.2245
▁벗어난	-10.2246
▁되겠습니다	-10.2248
거같네요	-10.2248
▁나누기	-10.2254
▁추가적으로	-10.2255
▁계산한	-10.2255
▁그때	-10.2267
01	-10.2273
▁빠져	-10.2273
▁등등	-10.2277
레	-10.2281
-2)	-10.2283
/4	-10.2284
▁돼요	-10.2285
▁언제	-10.2298
▁be	-10.2301
▁뿐만	-10.2303
▁구현한	-10.231
▁낮은	-10.2314
sqrt	-10.2321
진짜	-10.2322
▁피	-10.2323
▁StringTokenizer	-10.2325
오답	-10.2328
▁파악	-10.2328
▁대	-10.2332
번째줄에서	-10.2336
04	-10.2336
지도	-10.2339
▁distance	-10.234
▁아무래도	-10.2347
▁덜	-10.2354
▁우	-10.2358
▁get	-10.236
▁곳에서	-10.2371
dist	-10.2375
▁dy	-10.2387
축	-10.2396
▁확장	-10.2397
▁board	-10.2403
▁다양한	-10.2407
▁원본	-10.2412
▁문제였군요	-10.2413
▁잡고	-10.2413
▁결과값이	-10.2415
▁점은	-10.2416
▁assert	-10.2417
▁포함되어	-10.2424
▁형변환	-10.2425
right	-10.2426
sizeof	-10.2426
▁merge	-10.2427
▁소문자	-10.2435
▁붙여	-10.2435
▁의도하신	-10.2436
▁추가하고	-10.244
해보겠습니다	-10.2441
▁없지	-10.2442
함수는	-10.2447
▁꼼꼼히	-10.2452
▁알아보세요	-10.2452
▁언급	-10.2454
▁어디에	-10.2455
▁감이	-10.2459
▁게임	-10.2461
▁front	-10.2464
▁빼는	-10.2466
▁찾으면	-10.2467
▁원문	-10.2473
이죠	-10.2473
..!!	-10.2474
▁무엇을	-10.2477
empty	-10.2477
▁없애	-10.2482
▁쌍	-10.2491
▁쓰기	-10.2493
;;;	-10.2498
ation	-10.2501
점이	-10.2502
▁수정을	-10.2507
▁할지	-10.251
▁올리는	-10.2519
▁넣어야	-10.2522
▁72	-10.2528
▁75	-10.253
심	-10.2536
▁해보니	-10.2537
▁실행하면	-10.2541
▁'1'	-10.2542
2000	-10.2548
▁답변감사합니다	-10.2548
li	-10.2555
▁함수입니다	-10.2556
▁적힌	-10.2557
추가	-10.2559
▁커질	-10.2562
▁수학	-10.2564
▁만들기	-10.2566
▁하나도	-10.2568
...)	-10.2573
호	-10.2576
cc	-10.2578
>=	-10.2581
▁중복되는	-10.2585
▁쓰신	-10.2586
거같아요	-10.2588
▁구조체	-10.2589
로도	-10.259
][1]	-10.2592
▁지원	-10.2601
▁사실을	-10.2601
add	-10.2605
▁해제	-10.2608
▁돌아갑니다	-10.2609
▁만들어야	-10.2617
****************	-10.262
▁스택이	-10.2629
▁적게	-10.263
▁안하고	-10.2634
define	-10.2636
▁쓰인	-10.2645
▁보실	-10.2647
▁넣지	-10.2658
트리	-10.2661
▁있으신가요	-10.2662
▁re	-10.267
▁3)	-10.2671
▁태그	-10.2673
▁범위에	-10.2678
▁지우면	-10.2682
▁코드로는	-10.2692
▁않는다면	-10.2694
▁저장된	-10.2694
▁속	-10.2696
find	-10.2702
▁마지막으로	-10.2705
▁초기화하는	-10.2709
wwwwwwwwwwwwwwww	-10.271
▁copy	-10.2713
▁작습니다	-10.2716
▁높습니다	-10.2716
▁search	-10.2716
말	-10.2716
됨	-10.2725
▁그런거	-10.2727
또는	-10.2727
▁감소	-10.2728
▁달아주셔서	-10.2728
on	-10.2729
▁곧	-10.2729
▁부동소수점	-10.2732
▁abs	-10.274
하다	-10.2752
▁lst	-10.2752
▁문을	-10.2753
▁(0,	-10.2756
▁그에	-10.2758
▁방법입니다	-10.2758
▁고정	-10.2759
▁at	-10.2761
인데요	-10.2762
▁구하면	-10.2763
(0);	-10.2763
▁들어가고	-10.2773
▁많아서	-10.2773
▁않았는데	-10.2775
매	-10.2778
하였습니다	-10.278
▁dx	-10.2786
▁파이썬에서	-10.2786
▁최종	-10.2788
▁사소한	-10.2788
르	-10.2793
▁98	-10.2796
▁아닌데	-10.2799
return	-10.2799
별	-10.28
문제가	-10.2801
List	-10.2805
했고	-10.2805
처음	-10.281
▁나면	-10.2816
▁값들을	-10.2818
...!	-10.2819
ch	-10.2825
첫번째	-10.2833
하더라도	-10.2836
했다면	-10.284
절	-10.2841
▁보다는	-10.2845
터	-10.2847
▁이해하기	-10.2849
어떻게	-10.2854
▁아스키	-10.2857
땐	-10.2863
▁남겨	-10.2864
▁실력	-10.2867
▁달라질	-10.2877
값으로	-10.2877
▁누르면	-10.2878
▁표현이	-10.2881
▁뜨는데	-10.2882
▁내가	-10.2882
!!!!!	-10.2882
▁아이고	-10.2883
999	-10.2885
▁둘째	-10.2886
▁‘	-10.2888
▁depth	-10.2903
▁눈에	-10.2907
▁모양	-10.2908
거같습니다	-10.2909
는게	-10.291
▁단순한	-10.2912
▁결과적으로	-10.2913
▁있는데요	-10.2918
▁구하기	-10.2918
▁자리에	-10.2919
▁Output	-10.292
▁가능할	-10.2922
▁Input	-10.2927
▁따르면	-10.2933
진수	-10.2934
▁ret	-10.2936
87	-10.2936
▁가정하고	-10.2937
▁바이트	-10.2941
▁할때	-10.2941
ad	-10.2942
▁문제일까요	-10.2952
▁돌아가는	-10.2955
▁62	-10.2966
▁우연히	-10.2969
했어요	-10.297
▁지우는	-10.2972
된다는	-10.2981
▁-5	-10.2982
lld	-10.2982
▁초기화하지	-10.2983
▁친구	-10.2985
별로	-10.2985
▁공지사항	-10.2985
</	-10.2988
▁접근하게	-10.2998
▁도달	-10.3
▁수정해야	-10.3001
▁팁	-10.3005
▁갯수가	-10.3006
▁-1,	-10.3007
문자	-10.301
▁나눗셈	-10.3012
길래	-10.3012
-3	-10.3012
▁소스는	-10.3014
▁마	-10.3014
▁주지	-10.3017
▁호출할	-10.3018
▁입력받기	-10.3028
▁yes	-10.303
반복문	-10.3035
소	-10.3037
으로도	-10.3041
▁넘	-10.3044
조차	-10.3044
▁정점의	-10.3046
▁목표	-10.3047
▁주면	-10.3048
▁글자가	-10.3051
92	-10.3057
▁없어도	-10.3057
▁(0	-10.3058
aa	-10.3064
▁숫자는	-10.3064
▁분명	-10.3067
▁ac	-10.3073
▁될것	-10.3073
▁add	-10.3075
<<	-10.3075
abc	-10.308
이란	-10.3081
▁효율적으로	-10.3096
▁놓치고	-10.3097
▁solved	-10.3102
▁보네요	-10.3102
▁br	-10.3105
▁stdin	-10.3106
▁테스트케이스가	-10.3107
*)	-10.3109
▁vs	-10.3119
▁않나	-10.312
3)	-10.3121
▁67	-10.3121
▁ex	-10.3123
▁능력	-10.313
▁주소값	-10.3149
▁namespace	-10.3151
▁1000000000	-10.3152
▁차례대로	-10.3152
▁없죠	-10.3153
▁때문이죠	-10.3159
거같은데	-10.316
▁비주얼	-10.3169
▁원하시는	-10.3184
▁256	-10.3184
▁수정이	-10.3186
parseInt	-10.3188
array	-10.319
▁생성자	-10.3193
▁반대	-10.3202
▁val	-10.3203
78	-10.3206
▁여부	-10.321
▁조건문이	-10.3212
()))	-10.3212
예	-10.3213
▁같다면	-10.3213
을때	-10.3227
▁영어	-10.3231
▁예로	-10.3231
91	-10.3233
니깐	-10.3234
▁시작점	-10.3238
▁필요하지	-10.3239
▁개행이	-10.3241
write	-10.3244
▁돌릴	-10.3246
확인	-10.3247
strlen	-10.3248
▁틀리	-10.3249
그런	-10.325
명이	-10.325
▁배	-10.3255
now	-10.3256
▁(2,	-10.3257
▁10,	-10.3261
이건	-10.3263
▁주어집니다	-10.3263
▁빼면	-10.3266
아직	-10.3268
▁from	-10.3269
▁같다고	-10.3275
수록	-10.3275
▁STL	-10.3282
▁대회에서	-10.3284
▁사실상	-10.3293
▁매칭	-10.3297
▁그러므로	-10.3298
▁환경에서는	-10.3305
▁넘어가	-10.3308
▁길이의	-10.3312
▁생각에는	-10.3318
▁의심	-10.3318
잖아요	-10.3329
▁내부적으로	-10.3332
겠	-10.3333
▁계신	-10.3345
lf	-10.3347
▁있을지	-10.3347
▁궁금한	-10.3348
▁이름이	-10.335
▁10001	-10.3353
▁iterator	-10.3358
▁선언하고	-10.3359
▁개념을	-10.3359
▁이와	-10.3362
▁sorted	-10.3363
무	-10.3364
▁연속된	-10.3371
▁lower	-10.3373
▁it	-10.3377
▁말을	-10.3381
▁소	-10.3384
▁어렵네요	-10.3392
▁88	-10.3392
데요	-10.3394
▁확인하지	-10.3396
조	-10.3397
했을때	-10.3407
▁결과값	-10.3412
었	-10.3417
조건	-10.3423
보세요	-10.3423
▁뒤로	-10.3426
▁큐의	-10.3427
범위를	-10.3428
재귀	-10.3431
▁사이	-10.3434
▁해보시면	-10.3437
▁입력받으면	-10.3438
▁부분의	-10.344
[0][0]	-10.3444
deque	-10.3448
이긴	-10.3449
▁일반	-10.3456
린	-10.3457
▁구문	-10.3457
▁나오	-10.3462
▁stable	-10.3471
DP	-10.3477
하라는	-10.3479
68	-10.3486
▁정보가	-10.3487
실제	-10.349
▁root	-10.3493
▁넘어서	-10.3498
▁쭉	-10.35
▁이상하네요	-10.3501
▁Queue	-10.3506
NM	-10.3508
▁들어온	-10.3512
▁단위	-10.3512
▁못할	-10.3519
▁자신이	-10.3521
▁반영	-10.3524
▁문제와	-10.3524
▁7,	-10.3527
▁허용	-10.3531
와는	-10.3532
▁좋지	-10.3537
▁call	-10.3541
▁도로	-10.3542
▁것만	-10.3543
▁보이지	-10.355
인지는	-10.355
인것	-10.355
▁특히	-10.355
▁들여쓰기	-10.3558
==0	-10.356
▁레퍼런스	-10.3565
▁그런지	-10.3574
pos	-10.3577
▁출력되고	-10.3578
▁달	-10.3579
반례입니다	-10.3583
Num	-10.3588
가면서	-10.3591
java	-10.3593
▁질문은	-10.3601
an	-10.3603
▁도움을	-10.3604
▁읽지	-10.3607
▁누적	-10.3618
▁자리를	-10.3624
▁인식	-10.3625
법	-10.3628
▁연결되어	-10.3628
겠지요	-10.363
▁code	-10.3631
▁확인해보니	-10.3631
▁수로	-10.3634
500	-10.3637
▁91	-10.3642
문제에	-10.3642
▁WA	-10.3643
▁Math	-10.3645
▁미	-10.3647
81	-10.3649
그렇게	-10.3652
02	-10.3655
row	-10.3656
dz	-10.3659
▁세는	-10.366
ar	-10.3665
▁살짝	-10.3666
)]	-10.3666
으론	-10.3666
▁보아	-10.3666
▁클릭하면	-10.3666
▁고치고	-10.3667
▁단지	-10.3672
다보니	-10.3674
▁만일	-10.3675
const	-10.3678
▁오른쪽으로	-10.3679
......	-10.3684
쯤	-10.3692
▁되죠	-10.3692
value	-10.3697
갈	-10.3698
▁말한	-10.3702
ZZZZZZZZZZZZZZZZ	-10.3702
▁저걸	-10.3707
[0])	-10.3711
.10	-10.3715
▁원인이	-10.3717
▁인지	-10.3723
▁해야합니다	-10.3729
▁카운팅	-10.3731
▁go	-10.3732
9999	-10.3735
▁row	-10.374
▁되는군요	-10.3741
&&	-10.3749
NO	-10.3755
▁사용하신	-10.3757
86	-10.3764
76	-10.3765
▁않는다고	-10.3774
▁strcmp	-10.3778
▁주셔야	-10.3782
▁틀려서	-10.3786
학	-10.3793
-1][	-10.3798
▁검증	-10.38
색	-10.38
▁0.5	-10.3801
se	-10.3805
▁밖으로	-10.3805
▁일은	-10.3805
▁것이므로	-10.3814
▁74	-10.3817
▁-->	-10.3819
56	-10.3829
▁검색해	-10.3829
▁만약에	-10.3837
전에	-10.384
▁했지만	-10.3845
▁가능성	-10.3846
때마다	-10.3847
▁관련된	-10.3849
▁딕셔너리	-10.3859
▁우와	-10.386
▁의미는	-10.3861
(0	-10.3863
▁해시	-10.3863
ro	-10.3863
▁거라면	-10.3866
▁표기	-10.3868
하셔도	-10.3872
사용	-10.3874
지요	-10.3874
잡	-10.3877
▁짤	-10.3878
ly	-10.3887
+=	-10.3888
▁85	-10.3888
▁줄이는	-10.3889
pair	-10.3892
체	-10.3894
▁예제에서	-10.39
▁헤더	-10.39
거군요	-10.3907
▁오해	-10.3911
0,	-10.3913
았	-10.3921
▁최종적으로	-10.3922
▁싶어서	-10.3923
유	-10.3928
▁이동하는	-10.3929
▁110	-10.3929
▁출력하기	-10.3933
▁해결될	-10.3934
▁now	-10.3935
▁뜻	-10.3937
▁반복문에서	-10.3939
▁1~	-10.3943
▁이진	-10.3945
연	-10.3948
▁연속	-10.3949
▁예제에	-10.3951
▁대각선	-10.3953
도움	-10.3954
▁포함된	-10.3955
▁사용하셔야	-10.3958
▁않으니	-10.3965
▁맞고	-10.3969
▁말이죠	-10.3971
고요	-10.3972
▁변하지	-10.3977
▁해결하는	-10.398
▁-4	-10.3984
▁선	-10.3984
▁값만	-10.3993
▁정렬하는	-10.3994
▁ᄂ	-10.3995
네여	-10.4001
▁몇개	-10.4002
▁않아야	-10.4004
▁큐가	-10.4005
▁문자열에	-10.4007
▁사이클	-10.4011
판	-10.4013
물	-10.4013
데이터	-10.4014
▁71	-10.4015
ques	-10.4016
아래와	-10.4017
▁(2	-10.402
여기	-10.4035
소스	-10.4037
▁옮겨	-10.4039
▁실행됩니다	-10.4044
▁++	-10.4052
el	-10.4052
울	-10.4064
▁동작하지	-10.4065
parent	-10.4066
▁적혀	-10.407
▁호출하는	-10.4075
byte	-10.4076
▁개념	-10.408
였는데	-10.4081
▁사용해보세요	-10.4089
▁경고	-10.409
▁뜰	-10.409
▁안쪽	-10.4093
▁나눠	-10.4102
▁100%	-10.4104
▁동일	-10.4105
▁거기서	-10.4105
해결했습니다	-10.4107
▁받으실	-10.4109
▁통과합니다	-10.411
▁방문하지	-10.4115
맞	-10.4116
▁실행되는	-10.4121
▁해결하기	-10.4125
▁insert	-10.4127
(2,	-10.4127
▁리스트가	-10.4128
둘	-10.4128
졌	-10.4129
74	-10.4135
▁알려주시면	-10.4149
▁erase	-10.415
▁function	-10.4152
▁아이디	-10.4157
▁참가	-10.4163
▁→	-10.4164
▁잡아	-10.4168
▁기억	-10.418
▁102	-10.418
▁반복문으로	-10.4184
던데	-10.4187
주신	-10.4192
▁몫	-10.4202
▁읽어보시면	-10.4208
docs	-10.4209
▁끝날	-10.4214
▁메모리에	-10.4216
▁할당된	-10.4218
▁2000	-10.4221
▁등이	-10.4224
▁소수의	-10.4224
▁이것이	-10.4233
보통	-10.4239
▁것이라고	-10.4244
크	-10.4245
▁아래로	-10.4246
▁처리하지	-10.4246
▁68	-10.425
보시면	-10.4252
것으로	-10.4253
▁이상합니다	-10.4262
visit	-10.4263
틀린	-10.4264
▁***	-10.4269
▁찾아보시면	-10.4271
▁않음	-10.4272
▁확인해주세요	-10.4274
▁사용하세요	-10.4274
▁알고있습니다	-10.4275
▁사전	-10.4279
것같네요	-10.4283
▁같긴	-10.4287
▁들어왔을	-10.4289
▁양의	-10.4295
▁뜨	-10.4296
릴	-10.4299
▁아래는	-10.43
▁수정하여	-10.4302
▁소수인지	-10.4305
▁cmp	-10.4306
▁돼서	-10.4322
구나	-10.4323
예를들어	-10.4323
/5	-10.4324
부분이	-10.4329
▁나타낼	-10.4332
▁77	-10.4333
엄청나게	-10.4334
주세요	-10.4342
▁정의되지	-10.4348
▁문서	-10.4352
▁그러한	-10.4354
▁기억이	-10.4355
▁유	-10.4356
▁가질	-10.4358
드립니다	-10.4359
▁도저	-10.4364
▁예외가	-10.4374
4)	-10.4385
▁최단경로	-10.4385
▁2*	-10.4391
▁<-	-10.4393
그러나	-10.4394
ᄏ	-10.4394
▁노력	-10.4396
txt	-10.4396
▁일일이	-10.4397
못	-10.4401
▁보내세요	-10.4404
▁풀었네요	-10.4408
▁더욱	-10.4408
▁인자	-10.4408
▁가집니다	-10.441
▁주실	-10.4416
bit	-10.4417
▁ArrayList	-10.4419
▁공부해	-10.4422
▁분들은	-10.4428
▁인덱스로	-10.4428
▁분할	-10.4437
▁제시	-10.4444
▁dz	-10.4444
▁입력값이	-10.4452
▁tc	-10.4452
▁같다	-10.4456
▁조건식	-10.4458
▁성질	-10.4459
▁금방	-10.4467
▁swap	-10.4475
이때	-10.4482
▁priority	-10.4483
번부터	-10.4484
▁것에	-10.4485
▁ᄏᄏᄏᄏᄏ	-10.4485
▁출제	-10.4487
am	-10.449
시고	-10.4494
▁작동하지	-10.4509
▁고치니	-10.4512
07	-10.4521
▁기능이	-10.4522
▁고쳐도	-10.4522
프	-10.4527
▁왜냐하면	-10.4529
인거	-10.4531
▁모듈러	-10.4535
첫째	-10.4535
▁그런것	-10.4539
▁solve	-10.454
▁delete	-10.454
69	-10.4542
▁처음으로	-10.4543
▁풀지	-10.4544
▁그러	-10.4545
▁79	-10.4546
▁절대로	-10.4551
06	-10.4553
▁복	-10.4557
▁째	-10.4561
▁실행될	-10.4562
▁봤네요	-10.4567
▁using	-10.4568
▁수식	-10.4569
▁가치	-10.4569
▁95	-10.4576
▁곳은	-10.4579
론	-10.4579
▁명확하	-10.458
해보고	-10.4581
타	-10.4584
94	-10.4584
▁넘을	-10.4585
▁실수로	-10.4589
이어서	-10.459
▁방법으로는	-10.4592
▁마찬가지입니다	-10.4599
▁돌려서	-10.46
▁출력되네요	-10.4601
▁출력될	-10.4605
▁시험	-10.4612
▁높이가	-10.4617
▁아니라서	-10.4618
▁empty	-10.4619
▁저장해	-10.462
줘야	-10.462
▁모드	-10.462
73	-10.4625
▁되었네요	-10.4631
▁것인가요	-10.4632
▁길이만큼	-10.4637
난	-10.4639
▁바꿨더니	-10.4651
▁올렸습니다	-10.4652
▁성공했습니다	-10.4653
▁69	-10.4653
▁통과한	-10.4666
▁허	-10.4669
▁조건으로	-10.4674
▁걸리지	-10.4674
=>	-10.4674
▁갖는	-10.4677
▁해결됩니다	-10.4679
▁외에도	-10.468
▁??	-10.4681
▁먹	-10.4686
▁사람은	-10.4688
▁입력한	-10.4694
▁버튼	-10.4694
95	-10.4696
▁시점에서	-10.4696
▁않는데	-10.4698
▁120	-10.4702
제출	-10.4706
▁값도	-10.4707
▁분석	-10.4707
▁줄만	-10.471
true	-10.4715
System	-10.4716
▁abc	-10.4719
▁분기	-10.4719
▁맞아요	-10.4724
▁적절한	-10.4724
▁등록	-10.4731
▁손	-10.4733
-5	-10.4733
=4	-10.4741
▁되실	-10.4744
▁등장	-10.4749
▁참이	-10.4755
ᄋ	-10.4759
▁"1	-10.4759
▁님이	-10.4774
ᄏᄏᄏᄏ	-10.4784
▁발생하네요	-10.4784
▁바이러스	-10.4787
▁사항	-10.4792
▁수정하시면	-10.4792
▁등호	-10.4793
▁선언된	-10.4795
▁PS	-10.4803
▁경우에만	-10.4804
▁중복이	-10.4809
▁확인하기	-10.481
▁연속으로	-10.4811
++11	-10.4811
▁요소를	-10.4812
▁반례로	-10.4813
▁정확히는	-10.4816
합	-10.4818
▁걸린	-10.4826
▁명시되어	-10.4829
▁VS	-10.483
▁일어날	-10.4832
AC	-10.4836
▁돌려보니	-10.4837
th	-10.4844
원래	-10.485
▁이러면	-10.4851
▁입력했을	-10.4855
▁기법	-10.4857
▁왼쪽에	-10.487
▁끝나면	-10.4873
▁변형	-10.4874
개입니다	-10.4876
▁96	-10.4876
▁순위	-10.4879
▁고생	-10.488
us	-10.4883
▁last	-10.489
▁유형	-10.4892
▁유저	-10.4893
▁참고해	-10.4895
두번째	-10.4895
코드는	-10.4895
number	-10.4905
ra	-10.4905
▁저거	-10.4911
▁넘어가면	-10.4912
▁백만	-10.4914
▁환경에	-10.4915
3,	-10.4921
▁있으나	-10.4923
▁할당을	-10.4938
▁(3	-10.4941
▁!!!	-10.4941
계	-10.4945
▁님의	-10.4953
+3	-10.4957
해봤는데	-10.4958
▁예제의	-10.4959
▁번씩	-10.4961
져서	-10.4963
▁숫자들	-10.4964
▁문제점이	-10.4964
▁단어를	-10.4967
▁개인적으로	-10.4976
곳	-10.4977
▁낼	-10.4977
했지만	-10.4978
▁저장한	-10.4978
▁풀어보세요	-10.4981
▁않았네요	-10.4983
▁되니	-10.4989
bfs	-10.4991
▁해결했네요	-10.4991
마리	-10.4991
▁특성	-10.4992
▁고치니까	-10.4993
up	-10.4993
▁그저	-10.4994
▁싶다면	-10.4995
▁선언할	-10.5007
*100	-10.5008
▁배치	-10.501
▁봐	-10.5012
▁보내	-10.5013
▁접근을	-10.5017
▁두가지	-10.5022
▁자료형이	-10.5023
으니까	-10.5024
▁페이지	-10.5024
▁역	-10.5037
▁생각하신	-10.5042
▁개념이	-10.5046
▁나눌	-10.5047
▁강제	-10.5048
되게	-10.505
58	-10.505
▁reverse	-10.5051
▁다음부터는	-10.5059
▁아니라고	-10.5059
▁동작합니다	-10.5061
▁대해서만	-10.5063
▁78	-10.5065
▁등으로	-10.5067
▁아님	-10.5074
▁관리	-10.5084
▁신경	-10.5088
▁pos	-10.5091
▁저의	-10.5105
▁크	-10.5106
말씀하신	-10.5107
▁아실	-10.5114
▁비효율적인	-10.5115
기는	-10.5116
▁충분합니다	-10.5116
▁예를들어	-10.5116
▁통과되네요	-10.5118
score	-10.5121
여도	-10.5125
83	-10.5128
▁부호	-10.513
▁나게	-10.5132
▁최대공약수	-10.5133
▁덱	-10.5134
동안	-10.5134
예시	-10.5137
▁제출해	-10.5138
▁정도가	-10.5145
▁테스트를	-10.5147
▁고	-10.515
볼	-10.5153
no	-10.5154
함수에서	-10.5159
▁target	-10.5162
▁되니까	-10.5162
▁원소에	-10.5162
666	-10.5164
거리	-10.5171
분이	-10.5174
▁...,	-10.5177
▁여	-10.5178
▁개행문자가	-10.5182
▁설계	-10.5183
▁갖고	-10.5184
▁전까지	-10.5186
봤는데	-10.5187
Case	-10.5188
맞았습니다	-10.5189
rstrip	-10.519
함수의	-10.5192
생각	-10.5192
▁입력과	-10.5194
▁않	-10.5196
▁갑자기	-10.5197
▁저장되어	-10.5199
▁화이팅	-10.5212
▁구해서	-10.5215
▁인자를	-10.5218
▁더하면	-10.522
▁취급	-10.5225
▁심지어	-10.5225
▁아까	-10.5235
/10	-10.5235
%10	-10.5238
▁저랑	-10.5239
▁정수형으로	-10.5246
▁바꾸	-10.5247
줄이	-10.5248
▁거라	-10.5251
▁라인에	-10.5253
▁나오나요	-10.5259
▁풀었어요	-10.5263
칸을	-10.5263
▁떠서	-10.5265
▁피드백	-10.5266
▁좋아	-10.5267
▁알고리즘에	-10.5268
▁쓰시는	-10.5269
하죠	-10.527
▁그것도	-10.5273
.6	-10.5275
▁현상이	-10.5278
질문자님	-10.5282
▁저게	-10.5283
있었네요	-10.5288
▁second	-10.5289
▁많을	-10.5297
85	-10.5297
▁번의	-10.5301
▁prime	-10.5306
▁성립	-10.5306
▁치면	-10.5307
▁self	-10.5308
▁76	-10.5312
==1	-10.5315
▁구현하면	-10.5318
judge	-10.5319
▁비효율적입니다	-10.532
▁적어주세요	-10.5321
▁해결됬습니다	-10.5321
▁맞지만	-10.5326
▁명	-10.5326
▁도달할	-10.5327
malloc	-10.5328
것입니다	-10.5331
▁남아	-10.5335
▁주사위	-10.5351
▁칸씩	-10.5362
▁했을때	-10.5363
▁호출이	-10.5363
1[	-10.5366
▁당장	-10.5367
br	-10.5369
▁getline	-10.5374
▁에서는	-10.5377
▁않았을	-10.5378
이지	-10.5381
감	-10.5381
▁수행할	-10.5382
▁말씀드린	-10.5389
이거나	-10.5391
▁느낌	-10.5395
않	-10.5397
▁틀렸던	-10.5401
파이썬	-10.5404
re	-10.5405
▁채로	-10.5405
니까요	-10.5412
▁고친	-10.5413
▁됨	-10.5418
▁try	-10.542
님께서	-10.542
de	-10.5423
▁버그	-10.5424
있어서	-10.543
부터는	-10.5432
▁묶	-10.5432
있는데	-10.5437
▁방향이	-10.5443
▁초과하는	-10.5443
val	-10.5443
▁조정	-10.5444
▁될지	-10.5445
▁제곱수	-10.5445
▁[2,	-10.5454
시작	-10.5456
모	-10.5458
▁보너스	-10.5459
▁어려울	-10.5459
▁dict	-10.5461
▁임의로	-10.5467
▁끝나고	-10.5469
▁의해서	-10.5473
▁비례하는	-10.5474
▁거기에	-10.5475
놓고	-10.5477
▁지우	-10.5479
▁최대값이	-10.548
▁ch	-10.5481
";	-10.5481
▁라인을	-10.5483
84	-10.5486
▁않아요	-10.549
']	-10.5496
▁쉽지	-10.5498
▁했던	-10.5502
입력이	-10.5512
개인	-10.5513
▁맵	-10.5518
▁수정했는데	-10.5522
▁만들어진	-10.5527
▁색	-10.5528
쪽	-10.5529
naver	-10.553
▁것이라	-10.5531
▁많	-10.5533
▁한줄	-10.5534
▁사용해도	-10.5538
88	-10.5538
BFS	-10.5541
▁확률이	-10.5543
일때는	-10.5545
82	-10.5549
▁문장은	-10.555
▁주고	-10.555
▁ab	-10.5563
▁Node	-10.5571
▁바보	-10.5572
▁보시고	-10.5573
해주고	-10.5576
▁0~	-10.558
▁하다가	-10.5581
ios	-10.5582
▁출력해	-10.559
▁점에서	-10.5591
^3	-10.5592
101	-10.5594
▁문제집	-10.5596
▁외	-10.5596
--;	-10.5598
▁넘어	-10.5602
해주어야	-10.5603
▁느려서	-10.5603
[6]	-10.5603
89	-10.5606
▁원리	-10.5609
▁했으니	-10.561
remove	-10.5613
식으로	-10.5614
▁판단하는	-10.5615
▁일어나지	-10.5618
▁마찬가지	-10.5618
실행	-10.5621
▁자체에	-10.5622
부분에서	-10.5624
들도	-10.5626
▁아는	-10.5627
▁위쪽	-10.5629
▁언어로	-10.563
에서의	-10.5639
▁저장하지	-10.564
▁반면	-10.564
▁안의	-10.5642
▁반례도	-10.5643
▁"%	-10.5645
▁이상으로	-10.5645
▁경우입니다	-10.5653
▁추가해야	-10.5656
▁잡는	-10.5661
위와	-10.5661
초기화	-10.5662
▁점화식	-10.5676
all	-10.5678
▁예전에	-10.5678
▁해결되네요	-10.5679
까지밖에	-10.5681
▁아무거나	-10.5681
nextInt	-10.5685
댓글	-10.5686
애초에	-10.5686
시킬	-10.5687
▁궁금증	-10.5691
▁불가능	-10.5692
▁띄어쓰기가	-10.5692
▁고려해서	-10.5693
▁문의	-10.5696
▁되는거	-10.5698
000000	-10.5698
▁문자들	-10.5699
▁코드에는	-10.5701
▁후보	-10.5702
에서만	-10.5706
ha	-10.571
에만	-10.5712
▁일정	-10.5713
▁통과하지	-10.5713
해보면	-10.5713
▁있	-10.5717
▁추가된	-10.572
▁계단	-10.5721
EB	-10.5731
[10]	-10.5735
▁J	-10.5735
▁항목	-10.5744
▁도출	-10.5745
▁과연	-10.5746
▁없었습니다	-10.5746
▁삼각형	-10.5746
해주신	-10.5746
연산자	-10.575
▁덩치	-10.5751
형이	-10.5755
Integer	-10.5758
('\	-10.576
▁피할	-10.5761
▁빠를	-10.5762
▁확인하면	-10.5764
200	-10.5764
이라도	-10.5767
▁공개되어	-10.5767
▁시작할	-10.5767
▁aa	-10.5767
▁오류는	-10.5772
read	-10.5773
nlogn	-10.5775
)%	-10.5778
과는	-10.5778
▁점입니다	-10.578
▁위치에서	-10.5783
▁들어오지	-10.5784
▁주기	-10.579
▁봤습니다	-10.5796
노드	-10.58
행에	-10.5801
▁87	-10.5801
파	-10.5807
▁Case	-10.581
느라	-10.5812
▁안되	-10.5814
▁출력해도	-10.582
었군요	-10.582
▁푸실	-10.5821
▁사용이	-10.5828
이든	-10.5833
▁작동합니다	-10.5834
=5	-10.584
배열에	-10.5845
버립니다	-10.5847
▁다이나믹	-10.5849
속	-10.5857
▁작업이	-10.5864
▁더이상	-10.5868
▁되어있는데	-10.5869
▁공부를	-10.5875
▁돌아야	-10.5875
of	-10.5884
▁거고	-10.5888
번줄의	-10.5892
▁무시하고	-10.5896
▁92	-10.5897
▁최소한	-10.5897
▁걸려서	-10.5898
수를	-10.5904
▁제출을	-10.5905
cost	-10.5907
▁확인해야	-10.5907
굳이	-10.5907
▁같다는	-10.5911
▁경험	-10.5911
▁좋아요	-10.5912
▁가서	-10.5917
▁UB	-10.5918
▁operator	-10.5923
▁구해	-10.5931
▁남	-10.5943
▁exit	-10.5943
▁No	-10.5943
실수	-10.5945
▁구구구	-10.5947
▁제한은	-10.595
111	-10.5952
▁생각은	-10.5956
[1],	-10.5958
▁한계	-10.5959
스택	-10.5959
▁랜선	-10.5963
▁동작하는	-10.5963
▁로직은	-10.5964
▁벡터를	-10.5967
▁없을까요	-10.5969
▁동일합니다	-10.5969
량	-10.5971
et	-10.5973
▁겨우	-10.5975
▁포함해서	-10.5976
baekjoon	-10.5979
번쨰	-10.5979
▁찾아보니	-10.5979
▁플로이드	-10.5982
준	-10.5989
공	-10.599
▁도중에	-10.5997
▁때문이	-10.5999
에다가	-10.6
5)	-10.6
▁돌아갈	-10.6
▁생략	-10.6007
▁노드에	-10.6007
▁값들	-10.6007
▁같은지	-10.6009
▁외부	-10.6018
▁col	-10.6019
▁전역으로	-10.6024
했었는데	-10.6026
▁때문인	-10.6029
status	-10.6037
▁맞췄습니다	-10.6037
▁풀어보겠습니다	-10.6038
▁써보세요	-10.6038
소수	-10.6041
▁사용되는	-10.6043
▁일어나는	-10.6045
▁첨부합니다	-10.6046
▁with	-10.6048
디	-10.6049
▁뜬	-10.6052
▁현상	-10.6053
▁trim	-10.6054
▁출력초과	-10.6055
un	-10.6056
▁말하면	-10.6057
▁어렵게	-10.6059
혹은	-10.6065
▁public	-10.6072
[0],	-10.6074
▁바뀌지	-10.6076
▁이해하지	-10.6079
▁불이	-10.608
해보니	-10.608
▁엇	-10.6081
▁예제부터	-10.6082
▁방법에	-10.6086
참고	-10.6086
분들	-10.6091
▁후자	-10.6093
▁back	-10.6106
▁조사	-10.6109
▁넓이	-10.6112
▁최선	-10.6112
▁빠진	-10.6112
아래는	-10.6113
백준	-10.6113
▁따른	-10.6113
거였네요	-10.6114
▁가정하면	-10.6119
▁만나면	-10.6121
반	-10.6122
돼서	-10.6124
▁간단히	-10.6134
▁84	-10.6136
▁IDE	-10.6137
▁시간제한	-10.6142
▁경우에서	-10.6142
▁82	-10.6147
처리	-10.615
▁줄바꿈이	-10.6155
▁됐네요	-10.6156
▁73	-10.6156
▁사용하게	-10.6156
▁제출할	-10.6158
▁한가지	-10.6159
▁여지	-10.6162
▁비교하고	-10.6165
▁밖	-10.6167
▁이에	-10.6167
었어요	-10.6171
▁자문자답	-10.6184
▁읽었습니다	-10.6188
▁잡으면	-10.6188
▁작아서	-10.6191
▁점프	-10.6192
▁제공	-10.6194
값에	-10.6196
▁앞에서	-10.6198
▁개를	-10.6203
▁있으니까	-10.6203
▁요구	-10.6208
먼저	-10.6208
계속	-10.6208
71	-10.6218
▁손으로	-10.6222
▁없어야	-10.623
▁지수	-10.6235
▁cache	-10.624
했었네요	-10.6243
▁원소는	-10.6247
▁시스템	-10.6255
▁선언을	-10.6255
▁답안	-10.6256
▁기존에	-10.6259
▁압축	-10.6263
▁알려주세요	-10.6263
▁뭘까요	-10.6264
▁시작하면	-10.6265
▁id	-10.6267
▁달라서	-10.6268
▁2]	-10.6269
▁atoi	-10.6277
400	-10.6279
▁차례	-10.6281
▁그래프가	-10.6285
ate	-10.6296
봤습니다	-10.6297
▁출력해서	-10.6301
▁초	-10.6301
▁수열의	-10.6302
칸이	-10.6303
하던	-10.6305
▁함	-10.6307
▁전처리	-10.6309
▁사과	-10.6309
▁설치	-10.6312
▁세상에	-10.6312
▁실행해	-10.6316
▁소모	-10.6331
▁왼쪽으로	-10.6333
▁쓰셔야	-10.6335
테니	-10.6335
▁비교해	-10.634
▁분명히	-10.6342
정수	-10.6344
▁point	-10.6347
▁반환하지	-10.635
▁studio	-10.635
▁걸리게	-10.6351
▁끝이	-10.6353
▁저격	-10.6353
▁비교하면	-10.6355
뒤에	-10.6355
배열이	-10.6356
▁커	-10.6358
▁자신에	-10.6361
▁아니요	-10.6361
▁지워야	-10.6362
계산	-10.6365
▁틀렸	-10.6366
▁떨어지는	-10.6366
▁방문체크	-10.6366
▁바뀌는	-10.637
▁순서는	-10.6371
▁this	-10.6371
▁뭔가요	-10.6374
▁수에	-10.6376
처음에	-10.638
▁공부하고	-10.6384
▁출력에	-10.639
▁끝나지	-10.639
^3)	-10.6391
▁127	-10.6391
▁옵션	-10.6392
▁겹치는	-10.6395
으로만	-10.6397
▁순열	-10.64
▁사용법	-10.6401
=1;	-10.6408
▁벗어날	-10.6416
▁있겠습니다	-10.6417
▁생각해봅시다	-10.6418
▁아니므로	-10.6418
▁대하여	-10.6419
▁적당히	-10.6421
인덱스	-10.6421
▁예시에서	-10.6421
▁가격	-10.6422
▁값들이	-10.6425
▁듯합니다	-10.6428
▁소트	-10.6428
▁실	-10.6431
▁탐색이	-10.6432
▁수정할	-10.6434
▁제목	-10.6434
▁최초	-10.644
항상	-10.6441
cpp	-10.6445
▁아무튼	-10.6454
▁직선	-10.6454
▁등수	-10.6458
▁정렬한	-10.6461
▁어제	-10.6467
▁실력이	-10.6468
▁해보면	-10.6471
▁더하고	-10.6472
▁지원하지	-10.6476
▁설명해	-10.6477
▁쓰레기값	-10.6478
▁괜찮을	-10.6478
▁보이	-10.6481
▁99999	-10.6481
▁적는	-10.6488
▁늦게	-10.6494
▁여쭤봐도	-10.6494
▁배웠습니다	-10.6494
▁괜찮습니다	-10.6495
▁부분입니다	-10.65
▁질문자님이	-10.6502
▁컴퓨터가	-10.6506
▁접근이	-10.6507
▁path	-10.6509
▁운이	-10.6511
▁있는건가요	-10.6512
▁미만	-10.6513
▁싶으시면	-10.6515
▁해주어야	-10.6526
.@	-10.6529
▁직사각형	-10.653
▁주소가	-10.653
도움이	-10.6531
순으로	-10.6541
co	-10.6541
약	-10.6543
▁했기	-10.655
거였군요	-10.655
▁붙	-10.6553
래	-10.6554
:0	-10.6555
▁경로의	-10.6557
▁조건문에	-10.6559
▁돌지	-10.6567
▁가운데	-10.6571
▁도달하는	-10.6571
▁통째	-10.6572
했군요	-10.6572
기에	-10.6573
▁들어가기	-10.6574
▁스택의	-10.6574
▁작게	-10.6578
다음에	-10.6581
ᄏᄏᄏᄏᄏᄏᄏᄏᄏᄏᄏᄏᄏᄏᄏᄏ	-10.6587
▁U	-10.6589
py	-10.6598
import	-10.6598
▁가지게	-10.6599
▁List	-10.6606
▁bw	-10.6606
▁선언해서	-10.6608
느냐	-10.6608
▁문제일	-10.661
▁외에	-10.6614
번까지	-10.6614
▁시간초과는	-10.6621
▁보장은	-10.6624
▁조	-10.6626
~~~	-10.6631
▁89	-10.6632
시간이	-10.6634
▁풀리는	-10.664
▁비어있는	-10.6641
했었습니다	-10.6643
)*	-10.6648
ee	-10.6651
▁관한	-10.6654
▁순차적으로	-10.6654
하셨습니다	-10.6655
▁전자	-10.6658
[100]	-10.6662
▁-2147483648	-10.6667
▁binary	-10.6669
들에	-10.667
▁하셔서	-10.6671
루	-10.6672
9999999999999999	-10.6675
▁ABC	-10.6675
▁100001	-10.6677
▁visual	-10.6682
▁94	-10.6684
GB	-10.6689
외	-10.669
순	-10.6691
봤	-10.6699
▁앞으로는	-10.6699
▁배열크기	-10.6703
이군요	-10.6705
워	-10.6708
▁있는것	-10.6714
▁생각해야	-10.6716
▁온	-10.6719
+0	-10.6723
▁거꾸로	-10.673
▁절반	-10.673
▁돌아	-10.6731
ᄂ	-10.6734
▁코딩을	-10.6734
▁문에서	-10.6738
▁자세하게	-10.6741
▁저장됩니다	-10.6741
진법	-10.6745
▁계산하면	-10.6751
자세한	-10.6759
정답은	-10.6761
▁있는거	-10.6763
▁시에	-10.6764
▁구체적으로	-10.6766
줍니다	-10.6769
▁name	-10.6773
▁가야	-10.6774
▁sync	-10.6778
▁돈	-10.6781
▁되는건가요	-10.6783
▁때에도	-10.679
거라고	-10.6793
▁Answer	-10.6793
▁개인	-10.6801
파이썬은	-10.6802
▁될거	-10.6802
▁상태입니다	-10.6802
▁카테고리	-10.6805
▁커지면	-10.6805
▁readline	-10.6806
주는	-10.6807
▁돌아가	-10.681
▁준비	-10.6813
▁놓쳤네요	-10.6813
▁예제만	-10.6817
▁출력하라고	-10.6818
▁주석처리	-10.6825
▁고민해	-10.6826
급	-10.6827
큐	-10.6829
▁\0	-10.683
▁당	-10.6831
▁잡아야	-10.6832
(),	-10.6836
함을	-10.6837
주면	-10.6851
▁경우와	-10.6853
▁그만큼	-10.6856
프로	-10.6856
lst	-10.6857
▁보일	-10.6857
ᅲᅲᅲᅲ	-10.6859
1010101010101010	-10.6862
▁준	-10.6863
*10	-10.6863
▁되면서	-10.6866
▁강의	-10.6868
▁괄호가	-10.6869
입	-10.6872
▁알려	-10.6875
▁드릴	-10.688
▁씁니다	-10.688
뒤	-10.6881
▁변화	-10.689
천천히	-10.689
▁혼동	-10.689
▁줘야	-10.6891
▁확신	-10.6891
▁고쳤습니다	-10.6893
▁크로아티아	-10.6896
▁동기화	-10.6896
▁안된	-10.6897
▁표	-10.6899
▁돌리고	-10.6899
▁짜면	-10.6901
▁해주지	-10.6901
할까요	-10.6902
▁93	-10.6904
-4	-10.6907
▁정답입니다	-10.6908
답이	-10.6912
5,	-10.6914
▁기초	-10.692
▁기준이	-10.6922
그러므로	-10.6922
▁동작이	-10.6925
▁나열	-10.6927
형의	-10.693
▁갱신이	-10.6931
ri	-10.6933
▁물건	-10.6933
>0	-10.6936
▁edge	-10.6937
▁zero	-10.6939
▁이것을	-10.6941
▁얻어	-10.6941
▁사이트에서	-10.6941
▁들고	-10.6945
▁문제라고	-10.6947
▁솔루션	-10.6947
▁선언하는	-10.6951
했다는	-10.6955
▁하려고	-10.6959
col	-10.6962
윤	-10.6964
▁-1000	-10.6966
▁Array	-10.6968
▁시도해	-10.6969
▁궁금해서	-10.6978
▁문자의	-10.6982
만이	-10.6984
▁틀렸다는	-10.6984
-2]	-10.6985
▁무언가	-10.6985
▁하며	-10.6985
▁있었	-10.6987
▁있나	-10.6992
▁매개변수	-10.6994
▁실행할	-10.6994
ic	-10.6999
▁관계가	-10.7
▁None	-10.7001
72	-10.7002
하다고	-10.7003
▁앞서	-10.7006
모두	-10.7007
때는	-10.7008
)))	-10.7012
▁드는	-10.7019
▁코드인데	-10.7023
기도	-10.7023
test	-10.7027
▁돼	-10.7029
▁설명에	-10.7029
code	-10.7029
문자열을	-10.703
▁MOD	-10.703
res	-10.7031
▁너무너무	-10.7033
나봐요	-10.7037
▁했었는데	-10.7037
▁struct	-10.7038
Node	-10.7044
lo	-10.7045
▁것이지	-10.7047
(){	-10.7048
▁선택하는	-10.7053
ᄉ	-10.7054
▁that	-10.7054
▁넘어갑니다	-10.7054
▁무엇인가요	-10.7055
▁풀렸습니다	-10.7055
▁때에	-10.7056
▁오른쪽에	-10.7058
▁확실하게	-10.7061
▁캐스팅	-10.7062
깐	-10.7064
▁추가할	-10.7065
▁integer	-10.7069
▁구글링	-10.7079
▁트리가	-10.7084
▁출처	-10.7087
bool	-10.7089
▁하였습니다	-10.709
▁즉시	-10.7092
▁출력하네요	-10.7093
▁짜서	-10.7093
▁스튜디오	-10.7095
▁(3,	-10.7096
▁합은	-10.7097
▁['	-10.7099
▁짜는	-10.7103
▁거군요	-10.7109
하셨나요	-10.7119
▁메모리초과가	-10.7121
있네요	-10.7122
▁83	-10.7127
▁놓친	-10.7136
▁문제인데	-10.7136
▁궁금하네요	-10.7138
▁반례들	-10.7141
▁남아있는	-10.7142
▁정사각형	-10.7143
▁byte	-10.7144
▁글씨로	-10.7144
▁점점	-10.7145
▁실수형	-10.715
▁제거하는	-10.7151
▁칠	-10.7151
▁외의	-10.7152
피	-10.7155
▁동	-10.7157
▁찾아주셔서	-10.7159
나머지	-10.7159
듯합니다	-10.7163
▁있을겁니다	-10.7166
▁위로	-10.7167
▁완성	-10.7172
algorithm	-10.7172
▁정의를	-10.7175
▁치	-10.7176
.......	-10.7181
▁-10	-10.7181
▁느낌이	-10.7181
▁정렬하고	-10.7186
▁값인	-10.7189
▁lo	-10.7192
▁비교가	-10.7195
▁측정	-10.7197
▁루프에서	-10.72
▁포함한	-10.7206
▁거였네요	-10.7207
▁게시글	-10.7207
▁작성할	-10.7208
(2	-10.7208
키	-10.7212
/1	-10.7216
알	-10.7219
▁기초적인	-10.7221
▁늘려	-10.7221
▁받으신	-10.7223
▁수행하는	-10.7223
되면서	-10.7226
▁정답과	-10.7226
▁생각했네요	-10.7228
▁붙여서	-10.7232
1000000	-10.7233
ul	-10.7233
▁데이터에서	-10.7233
집	-10.7236
거면	-10.7238
▁등장하는	-10.724
▁부족	-10.7244
▁del	-10.7245
▁넣기	-10.7247
▁틀리고	-10.7248
뭐	-10.725
큰	-10.7251
라인에서	-10.7251
BOJ	-10.7257
파일	-10.7263
▁의미로	-10.7268
인경우	-10.7268
='	-10.7272
▁무한루프에	-10.7272
_2	-10.7272
▁나을	-10.7274
tree	-10.7279
▁답으로	-10.7284
age	-10.7284
▁검사할	-10.7286
▁-100	-10.7287
▁주어진다고	-10.7292
▁math	-10.7293
▁푸시는	-10.7296
▁입	-10.7299
▁듣고	-10.7304
▁일어납니다	-10.7304
▁적절히	-10.7304
▁처리하면	-10.7306
▁통과하네요	-10.731
▁수정했더니	-10.7311
▁개발	-10.7315
▁update	-10.7322
▁크고	-10.7329
▁union	-10.7329
창	-10.7331
▁순서에	-10.7332
▁알아야	-10.7335
몇	-10.734
▁번째로	-10.734
float	-10.7343
▁더해서	-10.7345
쓰	-10.7346
▁문제에는	-10.7346
▁나누면	-10.7353
힌트	-10.7353
▁처리해야	-10.7359
▁정점에서	-10.736
▁fill	-10.736
▁chk	-10.7361
▁요	-10.7364
▁10,000	-10.7364
▁입력될	-10.7365
▁못하게	-10.7368
억이	-10.7377
▁수정해도	-10.7383
▁이상일	-10.7385
▁말씀이신가요	-10.7389
▁특성상	-10.739
▁중요합니다	-10.739
▁들어옵니다	-10.7391
▁출력하라는	-10.7391
..??	-10.7392
▁좋다고	-10.7393
▁86	-10.7399
이면서	-10.7402
▁진심	-10.7408
▁바보같은	-10.7409
▁깊은	-10.7415
name	-10.7428
/6	-10.7428
아닌가요	-10.7428
▁용도로	-10.7431
▁본문에	-10.7435
▁연산으로	-10.7445
▁저장하기	-10.7448
▁[3,	-10.7448
▁뒤에는	-10.7449
▁0;}	-10.7451
▁애	-10.7452
▁밑	-10.7453
▁일을	-10.7454
▁몇번	-10.7454
▁이번에는	-10.7457
one	-10.7462
▁항	-10.7469
▁맞았어요	-10.7475
▁접	-10.7475
인줄	-10.7477
▁잘못됐습니다	-10.7479
▁소인수	-10.7485
▁정상적인	-10.7487
▁보게	-10.749
▁괄호를	-10.7492
▁이상인	-10.7497
▁속도를	-10.7497
=10	-10.7499
▁내부에	-10.7505
봐야	-10.7506
▁싶은데	-10.7506
▁반복해서	-10.7507
올	-10.751
구현	-10.7514
▁되며	-10.7516
▁기대	-10.7516
▁말씀해주신대로	-10.7518
▁계산해	-10.7519
▁내는	-10.7524
▁봐서	-10.7526
이었습니다	-10.7533
▁사각형	-10.7534
dy	-10.7536
째	-10.7539
려서	-10.7545
▁주로	-10.7553
▁물고기	-10.7557
▁바뀔	-10.756
▁많아	-10.756
▁진입	-10.756
▁아니에요	-10.7562
▁바꿔주세요	-10.7562
▁해결하셨나요	-10.7564
▁돌려봤는데	-10.7564
했으니	-10.7565
▁저장되는	-10.7565
▁눈	-10.7569
▁저장하면	-10.757
▁넘어가서	-10.7574
▁안해서	-10.7577
▁같으니	-10.7577
▁부등호	-10.7579
조금	-10.7581
▁친절하게	-10.7583
▁반례에서	-10.7585
버렸네요	-10.7589
거고	-10.7592
▁초기화하고	-10.7594
_1	-10.7601
시킨	-10.7602
▁hash	-10.7602
직접	-10.7604
▁답변자	-10.7605
▁본인	-10.7607
abs	-10.7609
▁algorithm	-10.761
me	-10.7635
뿐	-10.7638
▁변수명	-10.764
▁정해진	-10.7641
▁하시고	-10.7641
▁order	-10.7642
▁변수들	-10.7646
▁바탕으로	-10.7647
▁깨달았습니다	-10.7647
4,	-10.7648
nextToken	-10.7649
▁없나요	-10.765
▁nextLine	-10.7654
▁뽑는	-10.7655
▁떄	-10.7656
▁되요	-10.7658
▁형으로	-10.7659
ps	-10.7659
▁fflush	-10.7661
▁체스판	-10.7663
search	-10.7663
▁똑같	-10.7664
▁줄어들	-10.7664
▁all	-10.7669
▁스페이스	-10.7672
▁쌓	-10.7674
제곱	-10.768
보니까	-10.7681
▁같기	-10.7681
▁표현하는	-10.7683
▁정점에	-10.7684
▁다르기	-10.7687
▁영역에	-10.7689
equals	-10.7691
▁시행	-10.7695
▁이어	-10.7696
.8	-10.7707
가능한	-10.7713
▁거였군요	-10.7715
▁걸어	-10.7717
▁교환	-10.7718
대회	-10.7719
▁안했네요	-10.7719
▁달라지는	-10.7726
▁처음에는	-10.773
▁반환값	-10.7733
▁해결됐어요	-10.7735
▁되긴	-10.7737
▁뜻인가요	-10.7737
▁통과되는	-10.7742
남	-10.7744
▁가면	-10.7745
초로	-10.7746
▁쪽	-10.7746
▁바꿔주면	-10.7747
▁내장	-10.7751
▁날짜	-10.7751
▁늘	-10.7752
▁하거나	-10.7753
▁buffer	-10.7757
▁포함되지	-10.7758
드리	-10.7763
▁패턴	-10.7764
▁저장해서	-10.7772
▁계산하고	-10.7777
▁2;	-10.7778
빈	-10.7779
▁고수	-10.7781
▁테이블	-10.7781
▁그렇기	-10.7781
▁2147483647	-10.7783
*3	-10.7784
▁지워	-10.7784
▁정의가	-10.7785
▁func	-10.7788
▁are	-10.7791
되며	-10.7796
▁발	-10.7803
팀	-10.7803
▁선분	-10.7809
▁말씀이	-10.7816
▁작으면	-10.7816
▁해주고	-10.782
▁신기하네요	-10.7824
▁임시	-10.7825
해본	-10.7826
▁수정하였습니다	-10.7828
▁제출했더니	-10.7829
▁케이스로	-10.7834
▁문구	-10.7835
▁공간에	-10.7835
.#	-10.7836
▁아니네요	-10.7838
▁다음으로	-10.7839
퍼에서	-10.7841
했으면	-10.7841
▁섬	-10.7844
놓	-10.7845
▁복잡한	-10.7847
▁맞는거	-10.7847
▁short	-10.7848
▁heapq	-10.7852
100000	-10.7857
▁pivot	-10.7857
▁jh	-10.7857
▁접근하면	-10.7862
▁이상하지	-10.7863
▁거짓	-10.787
toString	-10.7871
아무튼	-10.7871
알려주셔서	-10.7872
▁비교해야	-10.7873
시에	-10.7874
dev	-10.7875
▁돌리	-10.7876
]==	-10.7878
ive	-10.7887
▁문제네요	-10.7888
▁랜덤으로	-10.7889
▁이해할	-10.7889
▁못해	-10.7897
▁줄처럼	-10.7899
:2	-10.7901
▁주어야	-10.7909
다음과	-10.7909
▁싶으시다면	-10.7913
▁오오	-10.792
▁Pypy	-10.7921
줄은	-10.7925
▁나와야하는데	-10.7925
나보네요	-10.7928
▁루프는	-10.7936
▁Visual	-10.7937
▁정해져	-10.7939
▁메일	-10.7939
▁사탕	-10.7941
▁인정	-10.7948
600	-10.7948
est	-10.7949
산	-10.7951
▁생각해도	-10.7953
▁무한루프를	-10.7954
▁맞춰	-10.7955
▁upper	-10.7959
비교	-10.7962
진수로	-10.7964
/1...	-10.7966
1+	-10.7969
▁못했는데	-10.7981
▁세번째	-10.7984
▁타	-10.7984
▁것들을	-10.7997
입력으로	-10.7999
풀	-10.8001
▁255	-10.8002
▁읽은	-10.8003
▁바꾸셔야	-10.8003
▁참고해보세요	-10.8005
ba	-10.801
▁가입	-10.8011
▁쓰이는	-10.8012
위치	-10.8016
▁-=	-10.8017
해줍니다	-10.8018
▁셀	-10.802
참	-10.8021
▁요즘	-10.8025
▁파	-10.8025
110	-10.8026
▁바뀌	-10.8026
▁LIS	-10.8027
▁그런가요	-10.8027
▁별도로	-10.8033
▁평가	-10.8036
*4	-10.8036
▁설명해주실	-10.8036
▁AB	-10.8037
▁좋을것	-10.8051
▁구글에	-10.8055
pow	-10.8057
작성하신	-10.8057
코딩	-10.8062
▁판별하는	-10.8066
▁head	-10.8066
go	-10.8067
▁해결했는데	-10.8069
국	-10.807
▁둔	-10.807
▁채점이	-10.8078
아마도	-10.8079
▁확인한	-10.8083
퍼	-10.8083
▁결과에	-10.8084
▁크기만큼	-10.8085
▁노드들	-10.8089
▁이외의	-10.8094
▁hi	-10.8094
▁틀렸었네요	-10.8095
▁지운	-10.8097
▁나타나는	-10.8098
▁character	-10.8098
▁못했었네요	-10.8099
sh	-10.8099
▁회의	-10.8101
=0,	-10.8101
▁받	-10.8103
▁플로우	-10.8105
지지	-10.8106
and	-10.8109
▁움직이는	-10.8109
range	-10.8109
128	-10.8111
▁있고요	-10.8111
▁방문하는	-10.8112
만까지	-10.8112
▁109	-10.8112
++17	-10.8117
▁미처	-10.812
▁998	-10.8125
▁서버에서	-10.8131
▁하하	-10.8133
▁호출하면	-10.8136
▁고르는	-10.8136
탐색	-10.8139
▁1000001	-10.814
▁안되는데	-10.8143
▁an	-10.8145
▁구현되어	-10.8145
yukariko	-10.8145
총	-10.8147
▁출력하시면	-10.8148
▁출력하도록	-10.8149
봐도	-10.8149
▁짜신	-10.815
▁걸리	-10.8156
▁추가한	-10.8162
▁지난	-10.8163
▁윗분	-10.8164
▁최소가	-10.8165
▁4000	-10.8168
▁reference	-10.8168
▁1,2	-10.8168
▁됬습니다	-10.817
하셨는데	-10.8174
▁관련이	-10.8178
ll	-10.8178
해주지	-10.8179
---------------	-10.8185
▁000	-10.8185
▁문제점은	-10.8186
▁명확히	-10.8186
▁고치시면	-10.8187
▁가리키고	-10.8188
▁맞춰서	-10.8193
▁올바르지	-10.8193
▁크다면	-10.8194
하시기	-10.8194
▁깔끔하게	-10.8196
>#	-10.8197
▁object	-10.8198
▁File	-10.8198
endl	-10.8201
/2)	-10.8205
만번	-10.8212
▁빼서	-10.8213
상태	-10.8213
이기에	-10.8218
▁수정하는	-10.8225
▁출력값	-10.8225
▁문자까지	-10.8226
▁성능	-10.823
▁space	-10.823
▁머리	-10.823
▁봤	-10.823
▁최고	-10.8232
▁질문자	-10.8235
▁새롭	-10.8238
True	-10.824
ion	-10.824
되는지	-10.8241
▁정렬되어	-10.8243
▁넣	-10.8246
▁my	-10.8249
순서	-10.8256
▁결과로	-10.8259
/8	-10.8259
▁작성자	-10.826
나봅니다	-10.826
▁시켜	-10.8263
들어	-10.8265
항	-10.8269
었던	-10.8273
▁길을	-10.8274
▁늦은	-10.8278
경	-10.8278
▁몰랐습니다	-10.8279
▁탐색할	-10.8281
▁거듭제곱	-10.8282
▁아래쪽	-10.8286
▁슬라이싱	-10.8286
▁편하게	-10.829
▁하셔도	-10.8294
▁같	-10.8297
▁수행하면	-10.8298
▁as	-10.83
▁길이에	-10.8301
▁이진탐색	-10.8303
ho	-10.8304
▁정렬할	-10.8306
통	-10.8307
ve	-10.831
된다고	-10.831
▁unordered	-10.8312
자마자	-10.8318
<0	-10.8323
▁해본	-10.8323
드리겠습니다	-10.8327
하고자	-10.8333
▁정렬은	-10.8334
DFS	-10.8335
왼쪽	-10.8335
1234	-10.8336
요청	-10.8337
▁끝나	-10.8351
▁타입이	-10.8351
▁검토	-10.8358
▁풀이에	-10.8359
▁루프에	-10.8359
as	-10.8362
번으로	-10.8366
)*(	-10.8373
▁바꿔주시면	-10.8374
▁8,	-10.8376
▁처리하고	-10.8381
▁있는지는	-10.8383
▁관계없이	-10.8383
▁보여	-10.8386
%9	-10.8392
▁너무나	-10.8394
▁넘게	-10.8395
▁장	-10.8396
▁힘	-10.8403
▁했어요	-10.8408
▁구현해	-10.8408
▁중복해서	-10.841
▁붙여넣기	-10.841
어도	-10.841
형은	-10.8415
1-	-10.8418
▁만들지	-10.8419
▁높	-10.8419
정도로	-10.842
▁있을때	-10.8422
▁낮	-10.8428
말씀해주신	-10.8428
포인터	-10.843
죄송합니다	-10.843
어느	-10.8431
▁계산해서	-10.8431
▁채우는	-10.8432
▁운	-10.8433
을까요	-10.8443
▁입력할	-10.8444
▁살	-10.8446
▁양방향	-10.845
보았습니다	-10.845
▁그려	-10.8451
▁형태가	-10.8451
버리면	-10.8454
▁문제풀이	-10.8458
▁최빈값	-10.8461
▁걱정	-10.8463
▁....	-10.8463
plusplus	-10.8466
▁고칠	-10.8466
▁뜨지	-10.8467
times	-10.8469
▁입력받아	-10.847
▁찾았네요	-10.8472
▁나와있는	-10.8473
▁학교	-10.8474
▁했는데도	-10.8476
▁접근하고	-10.8478
▁다소	-10.8479
▁제시해	-10.848
▁넣어보면	-10.848
▁확실한	-10.848
▁대소문자	-10.8481
▁말입니다	-10.8485
2]	-10.8486
▁놓은	-10.8488
▁중첩	-10.8494
5000	-10.8494
▁이럴	-10.8502
갑니다	-10.8506
▁ᅲᅮ	-10.8507
▁스튜디오에서	-10.8514
▁구현하신	-10.8518
2[	-10.852
▁호출될	-10.852
▁멤버	-10.8528
▁확인하실	-10.853
▁사용된	-10.8537
▁출력값이	-10.8541
▁안되는지	-10.8541
▁채워	-10.8546
▁초과할	-10.8546
▁설명은	-10.855
시키는	-10.8552
▁법	-10.8552
력과	-10.8555
▁곱하는	-10.8556
▁유무	-10.8561
▁착각	-10.8562
▁맞을까요	-10.8564
ay	-10.8565
▁않다면	-10.8565
▁담고	-10.8566
▁제공하는	-10.857
▁빌드	-10.8572
▁소인수분해	-10.8574
▁가게	-10.8578
[1][1]	-10.8578
▁자료형은	-10.8579
▁듭니다	-10.8581
▁해보고	-10.8581
▁반환해야	-10.8583
▁저장이	-10.8584
▁없애고	-10.8585
▁참조자	-10.8585
되도록	-10.8586
▁밑의	-10.8586
▁푸시면	-10.8586
▁collections	-10.8588
▁주의	-10.8596
▁풀면서	-10.8597
하다보니	-10.8598
▁썼	-10.8604
▁[1]	-10.8609
끔	-10.861
▁그래프에서	-10.861
▁fibo	-10.8611
▁줄여	-10.8611
류	-10.8617
금	-10.8619
▁빠르	-10.8619
올려주신	-10.8623
▁지나	-10.8623
Arr	-10.8623
하는지	-10.8625
▁구현해야	-10.8626
▁제시한	-10.8627
▁이것은	-10.8636
ol	-10.8645
▁512	-10.865
하려	-10.8651
▁3]	-10.8655
▁칸으로	-10.8661
il	-10.8663
▁만들었습니다	-10.8664
▁들어오	-10.8665
▁bound	-10.8666
=1,	-10.8666
key	-10.8668
▁사용했던	-10.8669
▁비어	-10.8669
▁20000	-10.8669
▁캐시	-10.8669
일경우	-10.8671
▁위험	-10.8674
[8]	-10.8675
해주셔야	-10.8679
▁알수	-10.8682
▁죄송하지만	-10.8685
▁상황에	-10.8686
▁점화식을	-10.8691
▁alphabet	-10.8691
▁보시기	-10.8693
▁코드만	-10.8695
된다면	-10.8695
기때문에	-10.8695
▁10^9	-10.8696
▁풀다가	-10.8696
▁읽어보니	-10.8698
▁환경이	-10.8713
▁판단할	-10.8715
습니당	-10.8721
마지막으로	-10.8723
▁화면에	-10.8726
▁do	-10.8733
▁nextInt	-10.8737
▁것부터	-10.8741
▁때문	-10.8741
▁외에는	-10.8744
▁결론	-10.8754
▁흐름	-10.8754
▁느릴	-10.8754
▁121	-10.8755
▁달아주신	-10.8756
▁50%	-10.8756
▁--	-10.8756
▁Max	-10.8757
▁소수로	-10.8757
▁움직일	-10.8759
▁그래요	-10.876
끝	-10.8761
▁이것저것	-10.8764
001	-10.8766
개까지	-10.8772
길이가	-10.8772
▁당신은	-10.8774
(5)	-10.8776
▁싶으면	-10.8778
▁뜻인지	-10.8781
내요	-10.8782
▁삭제하고	-10.8782
("\	-10.8782
▁통과하는	-10.8786
================	-10.8793
설명	-10.8794
▁-1;	-10.8795
▁자료형으로	-10.8799
▁조건문에서	-10.8802
▁글은	-10.8804
▁except	-10.8805
▁중괄호	-10.8805
▁이해하신	-10.8806
Exception	-10.881
▁의하면	-10.881
▁사이클을	-10.8813
▁여기서는	-10.8819
▁다리	-10.882
천	-10.882
일수도	-10.882
▁있을것	-10.8821
그러니까	-10.8822
▁성	-10.8822
▁포함하지	-10.8826
In	-10.8827
da	-10.8834
▁10)	-10.8835
편	-10.8838
▁나는데	-10.8839
▁아스키코드	-10.884
입력을	-10.8841
▁데이터로	-10.8842
▁어떨까	-10.8846
▁ᅮᅮᅮ	-10.8846
▁def	-10.8847
습	-10.8848
▁얕은	-10.8852
▁말씀드리자면	-10.8853
▁넉넉하게	-10.8853
▁""	-10.8853
▁해설	-10.8854
▁건물	-10.8856
▁있으실	-10.8856
▁않다고	-10.8858
▁수열이	-10.886
▁확인해보시면	-10.8861
▁실행하는	-10.8861
▁살펴	-10.8861
▁많네요	-10.8862
▁찾아보고	-10.8862
▁채	-10.8863
까진	-10.8863
▁앞에서부터	-10.8863
▁포기	-10.8864
하겠죠	-10.8866
셨네요	-10.8867
▁없어보입니다	-10.8867
▁Swift	-10.8867
▁드려	-10.8869
▁디버그	-10.8874
▁제출해보니	-10.8875
▁어느정도	-10.888
▁저장합니다	-10.8884
▁초기값이	-10.8888
▁소리	-10.8893
▁정렬하면	-10.8893
[7]	-10.8895
▁걸려	-10.8899
▁시작합니다	-10.89
▁지금처럼	-10.8903
▁참조하는	-10.8903
앗	-10.8906
▁꺼내	-10.8906
Python	-10.891
▁include	-10.8912
케이스	-10.8914
으신	-10.8916
▁되는것	-10.8916
▁입력되면	-10.8917
▁상하좌우	-10.8918
기가	-10.8918
주어진	-10.892
하였는데	-10.8921
▁구현해서	-10.8921
공간	-10.8922
뭔가	-10.8922
▁소스에서	-10.893
▁그러니	-10.8931
','	-10.8932
▁(10	-10.8935
▁지식	-10.8937
▁팰린드롬	-10.8941
▁고쳤는데	-10.8945
가지고	-10.8947
▁출력되는데	-10.8948
▁올립니다	-10.8952
▁생기	-10.8961
으나	-10.8966
▁종료됩니다	-10.8967
해야합니다	-10.8968
▁•	-10.8972
▁먹을	-10.8974
▁바구니	-10.8976
▁지역변수로	-10.8977
▁구역	-10.8978
만약에	-10.8979
▁인자가	-10.8981
▁인덱스의	-10.8983
▁지도	-10.8984
하진	-10.899
▁메모리초과	-10.899
[1])	-10.8996
번씩	-10.8997
▁최근에	-10.8998
중복	-10.9009
코드가	-10.9012
????	-10.9012
[0][	-10.9014
▁출력된	-10.9017
▁풀었	-10.9019
▁관련해서	-10.9019
▁이하인	-10.902
heap	-10.9021
▁리	-10.9025
었을	-10.9025
▁나왔	-10.9027
▁구체적	-10.9027
logn	-10.9031
▁붙이는	-10.9031
▁제거하고	-10.9035
표	-10.9036
방문	-10.9043
▁나누	-10.9045
▁한칸	-10.9046
▁배우	-10.9047
▁친절	-10.9047
션	-10.9049
▁통과될	-10.905
▁나온다는	-10.9051
▁알아갑니다	-10.9052
▁있었어요	-10.9054
▁리스트에서	-10.9059
하려는	-10.9062
▁컨테이너	-10.9063
▁규칙	-10.9065
▁테스트케이스마다	-10.9066
▁조금씩	-10.9071
▁발생하고	-10.9073
0)	-10.9076
▁열의	-10.9076
경로	-10.9076
▁생기지	-10.908
▁160	-10.908
im	-10.9083
크기	-10.9083
▁섞어	-10.9093
▁탭	-10.9094
▁읽어서	-10.9098
▁big	-10.91
하셨네요	-10.9102
-8	-10.9103
▁105	-10.9103
▁memo	-10.9103
▁일어나	-10.9107
×	-10.9108
▁돌기	-10.911
▁될겁니다	-10.911
자가	-10.9111
▁현황	-10.9114
▁파라미터	-10.9116
없는	-10.9116
0000	-10.9119
300	-10.9119
▁라면	-10.9127
▁최대로	-10.9128
▁iter	-10.9133
▁un	-10.9137
my	-10.9139
▁연	-10.9141
▁alpha	-10.9142
▁대상	-10.9144
▁해보	-10.9145
▁숏코딩	-10.9152
▁어쩔	-10.9152
▁Studio	-10.9152
LL	-10.9154
▁아뇨	-10.9155
▁권한	-10.9155
▁작성하면	-10.9157
▁이어서	-10.9157
KB	-10.9158
▁가끔	-10.9159
였던	-10.916
▁맞다면	-10.916
▁설명해주셔서	-10.916
▁이슈	-10.916
▁제출했던	-10.9162
▁로직에	-10.9162
▁편합니다	-10.9164
▁나는지	-10.9169
)$	-10.9171
▁일치	-10.9173
▁사랑합니다	-10.9176
▁제곱근	-10.918
▁발생해서	-10.9181
석	-10.9185
▁나고	-10.9186
정점	-10.9189
▁쪽이	-10.9191
역	-10.9192
+4	-10.9194
▁ᅲᅲᅲᅲᅲ	-10.9194
▁vec	-10.9206
▁해야할	-10.922
▁포문	-10.9221
case	-10.9221
▁자리에서	-10.9228
▁고치	-10.9231
▁이상이면	-10.9232
(4)	-10.9237
▁도전	-10.9237
▁돌려보면	-10.9238
▁포함하는	-10.9239
▁제출했는데	-10.924
▁로컬	-10.9242
▁목적	-10.9247
개일	-10.925
▁등차수열	-10.9254
▁시뮬레이션	-10.9254
▁작성하시오	-10.9254
▁오로지	-10.9255
util	-10.9255
겠다는	-10.9255
▁바꿨습니다	-10.9255
▁해결됐네요	-10.9256
▁못봤네요	-10.9256
▁권장합니다	-10.9257
)1	-10.9257
ang	-10.9258
▁떨어진	-10.9258
▁이해했네요	-10.926
▁코드들	-10.9262
▁틀리지	-10.9265
▁맞추	-10.9265
▁up	-10.9265
행을	-10.9267
자리수	-10.9267
▁boolean	-10.9267
▁pass	-10.9269
▁타일	-10.9269
▁잠시	-10.927
▁짜야	-10.927
(*	-10.9276
▁재귀적으로	-10.9276
▁SCC	-10.9277
▁글에서	-10.9278
▁인터넷	-10.9279
Count	-10.9279
▁썼는데	-10.928
드린	-10.9281
▁예시가	-10.9281
▁10;	-10.9283
▁경우로	-10.9288
▁출력과	-10.9288
▁조각	-10.9289
보단	-10.929
관	-10.9294
로직	-10.93
짜	-10.9301
▁한번씩	-10.9302
▁equals	-10.9308
생	-10.9311
.4.	-10.9313
▁adj	-10.9315
봐서	-10.9321
▁ᅮᅲ	-10.9324
▁최적해	-10.9324
되나요	-10.9325
▁high	-10.9329
▁리턴값	-10.933
조언	-10.933
="	-10.933
되었을	-10.933
이러한	-10.933
▁별개	-10.9331
단순히	-10.9331
▁마을	-10.9333
▁질	-10.9334
▁학생이	-10.9339
▁내면	-10.9344
▁연산에	-10.9347
▁싶어	-10.9348
였	-10.9348
▁고려해	-10.9352
▁걸쳐	-10.9352
▁comp	-10.9355
▁1][	-10.9356
배열은	-10.9357
▁여럿	-10.9357
▁올라온	-10.9359
▁참고해주세요	-10.9359
▁저기	-10.9363
▁통	-10.9365
▁시각	-10.9365
▁반복하는	-10.9366
영	-10.9368
▁가독성	-10.937
▁안된다는	-10.9376
했다	-10.9377
▁되어있네요	-10.9379
▁객체가	-10.9379
▁크지	-10.9383
▁취	-10.9384
▁드린	-10.9384
것같아요	-10.9384
▁문이	-10.9384
되었다고	-10.9384
▁최악	-10.9389
▁상에서	-10.9393
▁크기에	-10.9394
▁vertex	-10.9397
▁청소	-10.9398
........	-10.9399
▁알았	-10.9399
▁같게	-10.9406
▁않았	-10.9407
▁말고도	-10.9412
▁두면	-10.9413
+5	-10.9417
▁거기	-10.9419
불	-10.942
▁적을	-10.942
':	-10.9422
▁작동하는	-10.9423
책	-10.943
▁로그	-10.9432
Queue	-10.9435
▁출력할때	-10.9438
▁의도는	-10.9438
?"	-10.9441
봅니다	-10.9442
▁수준	-10.9443
값과	-10.9446
▁표준이	-10.9453
▁상어	-10.9456
▁(2)	-10.946
🍦	-10.9461
▁않으셔도	-10.9462
▁검색해보세요	-10.9465
한테	-10.9467
▁특별한	-10.9468
▁엉뚱한	-10.9468
▁대문자로	-10.9468
후에	-10.9468
▁삽질	-10.9471
▁1234	-10.9472
▁~~	-10.9474
▁'2'	-10.9479
▁저희	-10.9487
▁친	-10.9492
▁LinkedList	-10.9493
▁격자	-10.9493
▁0000	-10.9495
▁짝	-10.9504
▁관심	-10.951
▁rear	-10.9512
ᅡ	-10.9513
▁중앙값	-10.9514
▁쓰여	-10.9516
▁되어있지	-10.9519
일이	-10.9521
};	-10.9522
개인데	-10.9524
▁동작할	-10.9525
▁메모리는	-10.9527
▁바꿨는데	-10.9536
▁해결하고	-10.954
▁수정된	-10.954
▁심	-10.9542
ld	-10.9547
▁정의되어	-10.9547
이어도	-10.9551
||	-10.9557
▁제안	-10.9562
▁이라면	-10.9565
티	-10.9565
▁옆에	-10.9568
▁사람을	-10.9569
▁없겠죠	-10.957
▁table	-10.9572
▁나은	-10.9573
▁신경쓰지	-10.9575
/%	-10.9577
▁예시는	-10.9578
▁좋을까요	-10.9579
--)	-10.958
▁10^6	-10.9581
▁반복하면	-10.9584
▁묶어	-10.9589
▁붙는	-10.9593
▁넣어주는	-10.9594
▁배열과	-10.9602
방법	-10.9605
▁메인	-10.9607
▁어쨌든	-10.9608
▁목적지	-10.961
양	-10.9612
▁그것이	-10.9623
▁li	-10.9629
리는	-10.9632
▁줄씩	-10.9634
ᄆ	-10.9635
um	-10.9639
애	-10.9641
▁틀렸을	-10.9642
연산을	-10.9643
▁사용하실	-10.9644
개밖에	-10.9645
특히	-10.9646
▁공지	-10.9646
▁저같은	-10.9646
▁다섯	-10.9647
▁벽이	-10.9647
마지막에	-10.9648
선언	-10.9648
버려서	-10.9648
▁사실은	-10.9649
하셨다면	-10.965
▁기술	-10.9652
혹시나	-10.9653
앞으로	-10.9657
▁돌려도	-10.9664
듯이	-10.9668
▁계획	-10.9669
▁복사가	-10.967
▁쓰세요	-10.9674
▁flow	-10.9674
록	-10.9675
▁일부러	-10.9676
▁넘기	-10.9677
▁warning	-10.9678
▁사용자	-10.9679
▁복잡하게	-10.9682
▁누적합	-10.9685
▁구현체	-10.9686
▁언제나	-10.9687
▁진	-10.9688
▁마세요	-10.9691
▁스	-10.9693
+(	-10.9696
업	-10.9699
에서부터	-10.97
ow	-10.9701
문자열의	-10.9706
▁밖에서	-10.9706
▁666	-10.9711
▁전체적으로	-10.9714
보겠습니다	-10.9714
▁50000	-10.9714
▁범위에서	-10.9715
▁ideone	-10.9719
ce	-10.9721
▁수학적으로	-10.9721
▁양이	-10.973
▁받을때	-10.9738
▁맞았	-10.9743
▁줍니다	-10.9743
▁연산자가	-10.9744
▁구구구구구	-10.9744
포	-10.9747
▁파이썬이	-10.9749
수는	-10.9751
ec	-10.9754
▁문제에선	-10.9756
trim	-10.9758
graph	-10.9758
역시	-10.9762
▁질문들	-10.9765
있을	-10.9766
▁줄도	-10.9766
▁해결한	-10.9767
▁넘어가게	-10.9767
▁이걸로	-10.9768
▁스트링	-10.9769
ᄒᄒᄒ	-10.9773
거랑	-10.9777
▁하죠	-10.9778
▁고려할	-10.9781
▁상관없습니다	-10.9782
오류	-10.9783
▁과목	-10.9783
▁아시겠지만	-10.9784
▁참여	-10.9785
▁설정해	-10.9785
가며	-10.9786
▁완벽하게	-10.9787
▁언어에	-10.9787
쏙옙	-10.9787
▁참고하여	-10.9789
▁부족해서	-10.979
▁입력받아서	-10.9792
▁넣어주면	-10.9796
▁사전순	-10.9796
▁자연스럽	-10.9797
oo	-10.98
▁입력받아야	-10.9801
▁브루트포스	-10.9802
값의	-10.9802
▁정말감사합니다	-10.9803
▁되어있는	-10.9803
게요	-10.9804
▁IndexError	-10.9804
▁감소하는	-10.9805
▁쳐	-10.9807
▁안돼서	-10.9807
▁말씀을	-10.9808
▁위상정렬	-10.9809
▁봉지	-10.9812
▁됐어요	-10.9812
[9]	-10.9815
08	-10.982
▁본문	-10.982
▁드네요	-10.9821
▁inf	-10.9823
▁보장되지	-10.9827
▁자리까지	-10.9829
이여서	-10.9831
▁규칙이	-10.9835
▁잔	-10.9837
▁반환하고	-10.9842
▁que	-10.9843
변	-10.9844
▁해주셔서	-10.9846
▁하는군요	-10.9848
버리는	-10.9848
하자면	-10.985
발	-10.985
▁제출해도	-10.985
봅시다	-10.9854
복	-10.9858
▁했었네요	-10.986
(10	-10.9861
추	-10.9864
charAt	-10.9866
▁좋	-10.9867
reverse	-10.9868
▁스타일	-10.987
▁반복문의	-10.9874
▁인한	-10.988
▁정말정말	-10.9882
▁특수	-10.9882
됐습니다	-10.9883
▁150	-10.9884
▁건물을	-10.9887
▁나와있습니다	-10.9891
▁용어	-10.9891
▁같군요	-10.9891
▁꼼꼼하게	-10.9892
▁자답합니다	-10.9893
▁검색해보시면	-10.9894
▁통과되었습니다	-10.9894
占	-10.9896
▁500000	-10.9897
시간초과	-10.9898
wwwwwwwwwwwwwww	-10.9899
▁집중	-10.99
▁문제라	-10.99
▁이용해야	-10.9901
▁올리	-10.9902
▁곱하기	-10.9911
hi	-10.9912
ice	-10.9912
▁안쓰고	-10.9914
)2.	-10.9915
▁enter	-10.9918
▁잡은	-10.9919
▁배우는	-10.9919
▁입력시	-10.9926
▁않고도	-10.9927
▁move	-10.9929
▁체크할	-10.9932
▁같기도	-10.9933
▁그렇다고	-10.9935
▁담는	-10.9942
▁Stack	-10.9942
▁블럭	-10.9943
▁스트림	-10.9943
렸	-10.9944
▁방식입니다	-10.9947
자면	-10.9947
▁키워드	-10.9952
있으면	-10.9952
▁나오는데요	-10.9956
▁확인합니다	-10.9956
ir	-10.9956
▁문제만	-10.9961
해보	-10.9963
ot	-10.9964
▁지점에서	-10.9972
벽	-10.9975
▁내려	-10.9978
move	-10.9978
보도록	-10.998
겠어요	-10.9982
단어	-10.9985
gnu	-10.9988
▁1010	-10.9993
브	-10.9997
자바	-10.9998
▁레벨	-10.9999
▁오버헤드	-10.9999
▁종종	-10.9999
▁그러게요	-11
▁배운	-11
▁여기까지	-11.0003
▁그보다	-11.0004
▁생겨서	-11.0005
▁넣었는데	-11.0005
셨나요	-11.0007
▁올라가	-11.0008
▁확인해서	-11.0008
▁올리고	-11.0009
▁iostream	-11.0017
▁바꾸어서	-11.0018
▁지문에	-11.0019
▁메세지	-11.0019
▁층	-11.002
here	-11.0021
▁반복을	-11.0024
▁확인이	-11.0024
▁더해	-11.0029
▁현	-11.0031
▁궁금한게	-11.0032
▁논리적으로	-11.0032
[][]	-11.0037
▁바깥	-11.0041
]:	-11.0047
▁돌렸을	-11.0052
▁괜찮은	-11.0054
▁실험	-11.0055
▁시작한	-11.0056
▁시점	-11.0068
점은	-11.007
▁아니라는	-11.0071
▁완전탐색	-11.0074
▁노드로	-11.0076
Array	-11.0079
▁필요없	-11.0085
나오네요	-11.0085
보기	-11.0086
%8	-11.009
bupjae	-11.009
퍼센트	-11.0091
링크	-11.0091
▁공격	-11.0091
▁틀리신	-11.0093
stdout	-11.0093
▁계산해야	-11.0098
▁했어야	-11.0099
[1][	-11.0114
▁문제들이	-11.0114
▁주어지고	-11.0115
▁계획법	-11.0115
이후	-11.0118
▁업로드	-11.0119
▁어떤식으로	-11.012
▁매크로	-11.0122
▁것들이	-11.0122
▁몇몇	-11.0125
▁안나	-11.0125
▁The	-11.0128
▁문에	-11.0129
▁레이팅	-11.013
▁numpy	-11.0132
▁당연한	-11.0136
먹	-11.0137
++14	-11.0142
▁하셨네요	-11.0143
▁구하지	-11.0145
▁상자	-11.0149
:3	-11.0155
많은	-11.0157
번도	-11.0161
▁stdio	-11.0163
▁되야	-11.017
보셔도	-11.0172
▁찾	-11.0174
필요	-11.0178
▁답변해주신	-11.0185
림	-11.0194
▁알면	-11.0195
▁추가하여	-11.0195
백만	-11.0196
▁해보니까	-11.0198
▁공부하는	-11.0201
향	-11.0201
그래프	-11.0203
▁여유	-11.0203
▁배울	-11.0205
iostream	-11.0205
compare	-11.0205
전체	-11.0206
▁sb	-11.0206
친절한	-11.0207
해야겠네요	-11.0207
▁크기로	-11.0211
▁금액	-11.0212
▁정점들	-11.0216
천만	-11.0219
▁돕니다	-11.0223
▁치환	-11.0223
▁때와	-11.0223
▁분모	-11.0225
▁필요해	-11.0228
▁사진	-11.0229
▁__	-11.0229
]+	-11.0231
▁king	-11.0231
법을	-11.0232
*1	-11.0232
(\	-11.0233
error	-11.0234
▁좋게	-11.0237
▁퀵정렬	-11.0237
▁정밀도	-11.0242
ent	-11.0244
이동	-11.0246
▁위해선	-11.0251
eric	-11.0255
▁Console	-11.0258
▁로직으로	-11.0259
▁시간복잡도에	-11.0259
와서	-11.0261
온	-11.0261
▁조심	-11.0264
▁시점에	-11.0264
▁양쪽	-11.0266
▁불필요하	-11.027
해보는	-11.0278
▁풀리	-11.0282
▁코드에선	-11.0282
▁지키	-11.0284
.9	-11.0284
▁선언해	-11.0285
/9	-11.0286
sc	-11.0287
반례는	-11.0296
▁둘이	-11.0297
▁해볼게요	-11.0301
▁필요도	-11.0302
출	-11.0305
자리까지	-11.0313
집합	-11.0314
Value	-11.0315
▁자바로	-11.0317
▁충족	-11.0319
pichulia	-11.0319
것같은데	-11.0319
최소	-11.0321
▁눈이	-11.0322
▁되고요	-11.0325
▁한개	-11.0329
(2^	-11.033
~10	-11.0331
개짜리	-11.0333
▁one	-11.0335
▁파싱	-11.0336
▁유효한	-11.0341
▁고민했는데	-11.0342
속도	-11.0345
▁판	-11.0347
▁자답입니다	-11.0347
▁하나에	-11.0347
▁package	-11.0351
▁정수이다	-11.0351
▁언어에서	-11.0352
었고	-11.0352
▁넣게	-11.0352
▁뺄	-11.0352
명의	-11.0355
▁바꿔줘야	-11.0355
▁옮기는	-11.0355
▁segment	-11.0355
▁맞았는데	-11.0356
▁오래된	-11.0357
▁해봐야	-11.0357
될까요	-11.0358
아서	-11.036
▁노래	-11.036
풀이	-11.036
증	-11.0365
▁되는게	-11.0368
▁nums	-11.0368
하는거	-11.0373
▁댓글로	-11.0376
▁싶어요	-11.038
성이	-11.0381
▁읽으셨나	-11.0381
The	-11.0382
800	-11.0385
▁지원하는	-11.0386
▁저와	-11.0387
120	-11.0387
▁1),	-11.0393
▁수많은	-11.0396
▁시작해야	-11.0396
▁허허	-11.0402
▁곱하면	-11.0406
▁용량	-11.0406
▁선언되어	-11.0412
';	-11.0417
왔	-11.0419
▁줄에서는	-11.0421
것과	-11.0422
▁과정은	-11.0429
▁했고	-11.043
종	-11.0431
검색	-11.0432
햇	-11.0433
벡터	-11.0436
다익스트라	-11.0436
▁머리가	-11.0437
BBB	-11.0438
▁백	-11.044
에라토스테네스의	-11.0442
ap	-11.0445
작성자님	-11.0449
▁해주	-11.0449
▁가깝	-11.045
▁특징	-11.0451
▁입력하는	-11.0453
▁똑같습니다	-11.0453
▁넣어보시면	-11.0454
▁코드대로	-11.0454
싶	-11.0454
[26]	-11.0455
▁괜찮	-11.0456
▁리턴하는	-11.0457
▁모르겠	-11.0459
▁했	-11.0459
▁못했지만	-11.0462
해볼	-11.0462
▁의도된	-11.0464
▁할당하는	-11.0465
▁죄송한데	-11.0466
▁잡	-11.0466
▁건너	-11.0467
007	-11.0469
▁기반으로	-11.0471
상세한	-11.0472
▁다르지	-11.0472
▁사용했습니다	-11.0477
▁헤더파일	-11.048
▁올리기	-11.0485
ong	-11.0486
▁대박	-11.0487
▁낭비	-11.0488
▁틀린거	-11.0489
▁제시된	-11.0491
▁하도록	-11.0496
▁하는거	-11.0498
▁solution	-11.0503
으며	-11.0504
▁늘어나	-11.0505
▁잡을	-11.0506
▁반환하게	-11.0508
▁단축	-11.051
꺼에요	-11.0517
▁추가하니	-11.0517
타입	-11.0518
▁음수로	-11.0525
격	-11.0525
에러	-11.0527
▁제출해서	-11.0528
▁입력해	-11.053
▁꺼	-11.053
▁여기에서	-11.0531
▁나왔을	-11.0538
▁진행할	-11.0541
!!!!!!	-11.0542
0001	-11.0542
su	-11.0542
▁사용자가	-11.0543
힙	-11.0544
▁eof	-11.0545
▁numbers	-11.0549
▁최댓값은	-11.055
▁점들	-11.0551
컴파일러	-11.0554
point	-11.0559
했어야	-11.056
[1000]	-11.0562
▁sub	-11.0562
▁상태에	-11.0563
하실때	-11.0565
▁담기	-11.0566
▁처리한	-11.0566
젠	-11.0567
▁_)	-11.0568
▁살펴보세요	-11.0568
▁전략	-11.0568
▁올리겠습니다	-11.0568
▁");	-11.0569
▁엄청난	-11.0569
▁넘어선	-11.0569
▁정점으로	-11.0569
▁10^5	-11.057
▁깊게	-11.0571
▁입력받습니다	-11.0571
▁남는	-11.0572
▁가변	-11.0574
▁제출해보세요	-11.0575
▁충분한	-11.0578
▁돌아서	-11.058
(=	-11.0585
▁quick	-11.0589
넣	-11.0592
▁영상	-11.0592
▁비교하게	-11.0593
▁데이터도	-11.0596
▁바꿔주니	-11.0596
스트	-11.0598
▁몇가지	-11.0599
▁이동을	-11.0599
▁와야	-11.0599
-9	-11.0602
▁cycle	-11.0607
▁되었을	-11.0609
▁푸셨	-11.061
있고	-11.0611
많이	-11.0612
아니	-11.0614
▁stl	-11.0615
▁한글	-11.0619
여러	-11.0622
▁빼야	-11.0623
man	-11.0624
▁나와야합니다	-11.0627
▁문제처럼	-11.0627
▁말인지	-11.0629
가능	-11.0631
▁합치는	-11.0632
만일	-11.0634
곤	-11.0637
▁{}	-11.0642
했다가	-11.0646
->1	-11.0649
떄	-11.065
▁자체로	-11.0652
▁나타내	-11.0653
▁넣으니	-11.0656
께서	-11.0657
fs	-11.0658
▁비우는	-11.0661
권	-11.0668
-6	-11.0669
▁되는데요	-11.067
왜냐하면	-11.0673
from	-11.0673
올바른	-11.0673
EOF	-11.0673
▁말도	-11.0674
▁응용	-11.0684
▁계십니다	-11.0685
▁엣지	-11.0685
▁사다리	-11.0685
▁600	-11.0686
▁쉽습니다	-11.0686
▁가능하다고	-11.0689
▁다른분들	-11.069
▁자동	-11.069
▁포함하여	-11.0692
▁것들	-11.0694
▁올려주셔야	-11.0696
적이	-11.0697
해줄	-11.0705
▁나왔는데	-11.0705
▁푸는데	-11.0705
▁내림차순으로	-11.071
▁곱한	-11.0711
▁대응	-11.0712
▁일치하는	-11.0716
▁버블	-11.0718
▁호출한	-11.0719
▁생각하기	-11.0719
찾	-11.0721
▁풀어도	-11.0724
넘	-11.0725
▁합니다만	-11.0725
▁노드는	-11.0731
▁보았습니다	-11.0733
▁때문일	-11.0737
▁(0,0)	-11.0737
뜨	-11.0739
▁정상입니다	-11.0742
▁배워	-11.0743
하든	-11.0747
+1;	-11.0749
▁떨어지지	-11.0751
임에도	-11.0752
▁10^	-11.0753
거네요	-11.0758
▁신	-11.0759
▁따	-11.0761
▁문으로	-11.0761
ᄅ	-11.0762
▁그랬	-11.0767
함수에	-11.0769
▁경	-11.0771
▁빈칸	-11.078
▁make	-11.0781
▁한자리	-11.0782
▁질문자님께서	-11.0786
▁단계에서	-11.0786
▁문제인가요	-11.0787
▁링크가	-11.0787
박	-11.0789
▁최대치	-11.079
▁겠네요	-11.0791
Scanner	-11.0793
개수	-11.0793
꼭	-11.0793
Index	-11.0794
힌	-11.0794
▁down	-11.0795
엔터	-11.0796
▁우측	-11.0797
▁모르겠어서	-11.0798
돼	-11.0799
▁확정	-11.0799
▁티어	-11.0804
▁되었는데	-11.0805
▁백준님	-11.0805
▁고쳐보세요	-11.0805
▁쓰거나	-11.0808
니당	-11.0811
▁틀리다고	-11.0811
▁이루어지지	-11.0812
▁안해도	-11.0812
▁인터프리터	-11.0815
round	-11.082
▁인수	-11.0821
▁있으니까요	-11.0822
▁생각하시는	-11.0822
▁이하로	-11.0823
▁올림	-11.0823
▁어떤가요	-11.0825
▁일단은	-11.0826
▁같아야	-11.0827
▁보셨나요	-11.0828
▁모음	-11.0832
▁그리	-11.0833
▁하나라	-11.0834
▁신청	-11.0835
▁보장할	-11.0846
▁붙은	-11.0849
▁되더라구요	-11.0849
▁계산하지	-11.0849
▁생각하는데	-11.0851
▁Yes	-11.0854
▁힌트가	-11.0859
▁대답	-11.086
▁개수와	-11.086
▁이유도	-11.0862
되니	-11.0862
▁초보	-11.0863
▁입력받지	-11.0868
▁(4,	-11.0872
▁이후로	-11.0878
▁바꿔주는	-11.0881
▁In	-11.0883
▁해봅시다	-11.0884
▁것일	-11.0887
▁저장해야	-11.0891
▁실행되면	-11.0896
▁초과합니다	-11.0901
▁후에는	-11.0902
▁작성하는	-11.0903
ABC	-11.0908
▁고려하면	-11.0908
▁수록	-11.0908
독	-11.0909
익은	-11.0909
립니다	-11.091
데로	-11.0915
nextLine	-11.0915
▁rstrip	-11.0917
▁추가합니다	-11.0917
그림	-11.0918
▁더하기	-11.092
겨	-11.0921
▁10007	-11.0924
▁프린트	-11.0925
00513	-11.0925
▁다행입니다	-11.0925
▁받으세요	-11.0925
▁얼마든지	-11.0925
▁토대로	-11.0926
▁경로는	-11.0926
▁말씀드리면	-11.0928
▁strip	-11.0928
▁실수였네요	-11.0929
▁×	-11.0931
▁역순으로	-11.0934
▁탐색으로	-11.0935
▁고려하여	-11.0936
▁수정하겠습니다	-11.0936
▁풀어보고	-11.0938
▁패키지	-11.0939
▁나누고	-11.0942
▁골드	-11.0942
▁가능하고	-11.0944
▁서브태스크	-11.0947
▁못했던	-11.0948
▁정확도	-11.0948
▁종료되는	-11.0951
▁선형	-11.0952
뿐만	-11.0953
조건을	-11.0956
하셨는지	-11.0965
▁행과	-11.0967
▁차이로	-11.0969
▁'-'	-11.0969
밑에	-11.097
213	-11.0973
ea	-11.0974
▁소수인	-11.0976
▁dis	-11.0978
▁적어주신	-11.0981
▁것만으로	-11.0983
▁붙어	-11.0983
던지	-11.0983
▁에러로	-11.0985
▁수정했는데도	-11.0987
▁정적	-11.0989
있었는데	-11.0991
▁Undefined	-11.0993
▁뽑아	-11.0998
.2)	-11.1016
▁커지는	-11.1025
▁녹	-11.1026
▁이름은	-11.1027
▁쓰게	-11.1029
▁{0,	-11.1038
erase	-11.1039
투	-11.1039
1000000000	-11.104
▁교체	-11.1045
▁서식	-11.1045
▁Behavior	-11.1047
▁괜히	-11.1047
▁그렇고	-11.1047
▁무거운	-11.1047
(...)	-11.1047
▁않으며	-11.1047
▁알아보시면	-11.1048
▁부족합니다	-11.1054
▁의도와	-11.1054
▁생각해보겠습니다	-11.1055
321	-11.1055
▁먼	-11.1056
▁인덱싱	-11.1057
자료형	-11.1057
▁있기에	-11.1058
되었기	-11.1061
▁찾았	-11.1061
▁나름	-11.1065
▁누군가	-11.1069
▁생각엔	-11.1069
▁whitespace	-11.107
방법이	-11.1071
777	-11.1071
##	-11.1072
▁다루는	-11.1076
▁iterable	-11.1077
까봐	-11.1078
▁잘못했네요	-11.1082
121	-11.1085
ud	-11.1087
▁되어있어서	-11.1087
▁상관없	-11.1088
▁지우지	-11.1088
옵니다	-11.1092
fan	-11.1092
▁et	-11.1095
▁번호는	-11.1097
▁106	-11.1098
였다면	-11.1103
▁느	-11.1106
▁인원	-11.1106
▁가리키게	-11.1107
▁포함되는	-11.1109
▁주어진다는	-11.111
▁않은데	-11.1112
[101]	-11.1114
▁뒷	-11.1117
▁정답이라고	-11.1117
개는	-11.112
▁입력만	-11.112
명을	-11.1123
▁포	-11.1125
▁사용량	-11.1128
▁의문이	-11.1133
설	-11.1148
900	-11.1151
부분은	-11.1152
▁해결하실	-11.1154
▁해버리면	-11.1154
▁뒤집는	-11.1156
번째줄의	-11.1157
혀	-11.1158
셨으면	-11.1159
▁배정	-11.1159
모르	-11.1163
wrong	-11.1163
.7	-11.1163
▁구현은	-11.1163
그룹	-11.1164
▁돌린	-11.1164
▁aaa	-11.1165
▁pre	-11.1167
마찬가지로	-11.1167
▁에러입니다	-11.117
▁달린	-11.1171
▁읽었네요	-11.1175
▁정답인	-11.1176
▁극	-11.1177
▁알기	-11.1178
▁노드에서	-11.1179
▁비교하기	-11.1182
부분에	-11.1182
▁있을까	-11.1183
▁무한대	-11.1183
▁FAQ	-11.1184
:4	-11.1185
▁recursion	-11.1186
▁모듈로	-11.1187
▁안되면	-11.1189
▁놓는	-11.1191
▁리스트는	-11.1192
▁걸리고	-11.1192
▁확	-11.1192
9411	-11.1193
▁남게	-11.1193
▁콘솔	-11.1195
앞에	-11.1198
dx	-11.1199
▁바꾸지	-11.1199
▁설마	-11.1199
▁남기	-11.12
보는	-11.12
▁없는것	-11.1201
▁인접리스트	-11.1202
▁반환값이	-11.1203
▁솔직히	-11.1203
있어요	-11.1203
▁다르면	-11.1203
테스트케이스	-11.1208
▁거리는	-11.121
▁예전	-11.1212
시켜서	-11.1213
▁익	-11.1214
▁변환하는	-11.1218
것처럼	-11.1221
▁산	-11.1228
하라고	-11.1232
▁진행하면	-11.1233
▁어딘가	-11.1235
▁출력해야합니다	-11.1244
로써	-11.1245
▁보이지만	-11.125
▁ar	-11.125
▁글자씩	-11.1252
▁가져	-11.1252
▁했는지	-11.1257
,000,000	-11.1261
언어를	-11.1261
변수를	-11.1261
시간을	-11.1263
▁씩	-11.1265
▁나가는	-11.1265
~!!	-11.127
시간복잡도	-11.1271
▁들어오기	-11.1271
▁천만	-11.1271
▁났	-11.1272
▁핵심	-11.1274
▁뜨고	-11.1274
AB	-11.1274
▁1,000,000,000	-11.1276
▁이외에	-11.1278
로부터	-11.1281
▁구분되어	-11.1282
6)	-11.1287
토	-11.129
YES	-11.1291
▁dir	-11.1292
▁중요하지	-11.1294
▁바뀝니다	-11.1295
▁부끄럽네요	-11.1295
▁상품	-11.1295
bb	-11.1298
▁백준에	-11.1299
▁이메일	-11.1302
▁format	-11.1302
▁통과된	-11.1303
table	-11.1303
▁잠	-11.1304
▁좋을거	-11.1305
▁행의	-11.1306
▁아시나요	-11.1307
▁게다가	-11.1308
▁바보같이	-11.1309
▁넘겨	-11.1309
▁비공개	-11.131
▁대입하는	-11.1313
▁푸는게	-11.1319
▁있을거에요	-11.1326
▁둘의	-11.1328
▁돌면	-11.133
shg	-11.1331
▁강	-11.1331
안에서	-11.1333
▁shift	-11.1335
▁해야겠네요	-11.1335
lg	-11.1339
▁이동한	-11.134
▁접근해서	-11.1341
▁잘못되어	-11.1341
▁호출하고	-11.1345
▁될거에요	-11.1345
▁문제없이	-11.1346
▁900	-11.1348
▁라인이	-11.1349
됐	-11.1353
번째줄을	-11.1359
▁과정에	-11.1359
예요	-11.1362
▁기호	-11.1365
▁시간과	-11.1367
코드의	-11.1369
▁matrix	-11.1372
▁방문처리	-11.1375
▁(1,1)	-11.1378
▁고치는	-11.1379
▁뭐지	-11.1379
▁줄이기	-11.1379
▁남아있	-11.1383
▁분수	-11.1383
▁재밌	-11.1385
▁비교하여	-11.1388
▁입출력이	-11.1388
▁때에만	-11.1389
▁수들	-11.1392
▁출발점	-11.1392
▁봐서는	-11.1393
▁내일	-11.1402
▁replace	-11.1403
▁999999	-11.1411
▁풀이로	-11.1412
strip	-11.1413
▁값보다	-11.1414
False	-11.1419
root	-11.1419
▁빠졌습니다	-11.1423
야겠네요	-11.1423
▁이해됐습니다	-11.1423
▁빼먹었네요	-11.1425
▁효율성	-11.1426
미터	-11.1427
▁잘못되었네요	-11.1429
▁[[	-11.1431
▁다르	-11.1432
▁사용하거나	-11.1433
▁삭제하는	-11.1434
▁마음	-11.1436
▁수만큼	-11.1438
테	-11.1439
▁이용할	-11.144
▁멍청한	-11.1443
▁쪽으로	-11.1444
받	-11.1444
▁구멍	-11.1449
▁ValueError	-11.145
▁합의	-11.145
▁오버	-11.1451
▁지훈이	-11.1452
▁하니깐	-11.1452
▁나온다고	-11.1454
▁꼴	-11.1455
▁ba	-11.1455
▁1024	-11.1456
▁묶음	-11.1461
그러니	-11.1462
횟수	-11.1464
▁어디까지	-11.1465
▁되었	-11.1468
▁정보는	-11.1473
▁붙이면	-11.1474
▁찾아내	-11.1474
▁느리기	-11.1477
그걸	-11.1477
으로써	-11.1478
▁거고요	-11.1482
▁필요로	-11.1483
▁보통은	-11.1484
▁'('	-11.1486
▁알려주실수	-11.1488
돌	-11.1489
▁이해하는	-11.1496
▁예정	-11.1497
ok	-11.1501
▁헛	-11.1502
조건이	-11.1504
번줄이	-11.1507
▁수학적	-11.1509
▁입장에서	-11.1509
▁}}	-11.1509
▁받았을	-11.151
os	-11.151
▁ᄏ	-11.1514
by	-11.1516
▁하던	-11.1516
][2]	-11.1518
쳐	-11.1518
▁몰랐	-11.1519
▁처리해	-11.152
놓은	-11.1524
ur	-11.1524
do	-11.153
▁진행하는	-11.1531
▁(4	-11.1531
▁했으므로	-11.1532
▁후자는	-11.1537
>=0	-11.1549
”	-11.155
▁떴습니다	-11.155
대로라면	-11.155
▁투	-11.155
▁나오긴	-11.1553
▁코딩테스트	-11.1553
▁제한에	-11.1553
▁element	-11.1554
▁공부해보세요	-11.1554
▁들어온다면	-11.1556
최악의	-11.1557
▁부탁드려도	-11.1558
▁짧게	-11.1562
▁바뀌어야	-11.1563
▁내림차순	-11.1565
▁스티커	-11.1568
▁console	-11.1568
▁100)	-11.1569
▁활용해서	-11.1572
▁중단	-11.1572
했는데도	-11.1576
▁Ai	-11.1582
▁작성해야	-11.1587
▁것일까요	-11.1587
▁원형	-11.1596
▁틀렸다	-11.1597
▁탐색하고	-11.1598
▁떄문에	-11.1598
▁출력도	-11.1599
▁avg	-11.1603
용하시면	-11.1605
▁있는게	-11.1608
▁말해서	-11.1609
▁되었어요	-11.1609
십	-11.1614
▁탐색하게	-11.1617
▁호출하게	-11.1624
▁놓	-11.1627
▁으	-11.1628
앞	-11.163
No	-11.1631
▁도중	-11.1631
▁상황입니다	-11.1635
▁출력형식	-11.1635
▁보신	-11.1636
해준	-11.1638
▁누구	-11.164
▁할당이	-11.1646
▁밤	-11.1647
▁놓을	-11.1647
▁해당되는	-11.1649
▁케이스들	-11.165
▁상어가	-11.1651
▁편할	-11.1652
▁어려워	-11.1652
▁따라가	-11.1656
▁달라지	-11.1659
위에서	-11.1659
삼	-11.1661
됬	-11.1663
▁미로	-11.1663
▁올라가는	-11.1664
▁알지	-11.1668
▁실행했을	-11.1668
▁효율적이	-11.1674
중간에	-11.1675
노	-11.1676
▁가능한지	-11.1678
플	-11.1679
▁차근차근	-11.168
빠른	-11.168
부턴	-11.168
대충	-11.1681
▁않더라도	-11.1681
Max	-11.1682
▁알았어요	-11.1683
▁발견했습니다	-11.1685
▁썼네요	-11.1685
▁유일한	-11.1686
▁보장하지	-11.1688
할지	-11.1688
▁들어온다고	-11.1689
format	-11.169
▁발생했습니다	-11.1691
▁특별	-11.1692
상에서	-11.1694
lang	-11.1694
998	-11.1694
RE	-11.1695
▁카테고리에	-11.17
▁바뀌게	-11.17
▁추가하시면	-11.1708
▁될것같습니다	-11.1708
▁리턴합니다	-11.171
▁입력받을때	-11.1713
▁10,000,000	-11.1713
sec	-11.1713
▁해준	-11.1716
▁돌아오	-11.1717
받은	-11.1722
▁지는	-11.1723
▁체크하고	-11.1723
이었군요	-11.1725
▁WBWBWBWB	-11.1726
▁세면	-11.1728
▁누가	-11.1728
▁적혀있는	-11.1738
▁창	-11.174
▁가르쳐	-11.174
▁타입으로	-11.174
시네요	-11.1741
▁돌아가지	-11.1743
▁세트	-11.1744
-10	-11.1749
▁잡아먹	-11.1752
▁weight	-11.1759
▁합쳐	-11.1762
▁이득	-11.177
▁근	-11.1771
그렇기	-11.1772
▁Line	-11.1772
▁분들께	-11.1775
착	-11.1775
▁prev	-11.1775
=(	-11.1776
▁가능하다는	-11.1777
▁1,000	-11.1786
▁영	-11.1787
▁풀긴	-11.1791
문제에서는	-11.1792
친	-11.1793
▁언어가	-11.1796
▁방문하게	-11.1804
언	-11.1805
(-1)	-11.1805
pl	-11.1806
▁해결해야	-11.1806
▁말대로	-11.1807
▁주어진다면	-11.1808
▁쿠키	-11.1811
▁압니다	-11.1811
Number	-11.1813
오역	-11.1813
▁개수만큼	-11.1813
단계	-11.1814
,,,,	-11.1814
▁지울	-11.1815
▁global	-11.1815
element	-11.1816
▁구간이	-11.1821
▁넣어보고	-11.1824
▁1.5	-11.1827
▁100000000	-11.1829
▁지나치	-11.1832
▁이루는	-11.1833
▁벡터에	-11.1835
만으로는	-11.1836
__	-11.1845
▁경계	-11.1846
▁제출이	-11.1846
▁나올수	-11.185
ret	-11.185
▁동작은	-11.185
▁깨	-11.185
▁개인적인	-11.1852
▁속한	-11.1856
해봐야	-11.1856
▁탑	-11.1856
해보시는	-11.1856
▁시키는	-11.1857
▁''	-11.1858
번호	-11.186
▁드리면	-11.186
:5	-11.1861
▁풀수	-11.1869
라니	-11.1872
mem	-11.1873
▁비교합니다	-11.1877
▁군요	-11.1879
▁부분들	-11.1893
▁발생하기	-11.1893
▁소문자로	-11.1893
▁충돌	-11.19
▁가능하면	-11.1901
▁부탁	-11.1903
▁공부가	-11.1904
▁체크하지	-11.1908
▁1111	-11.1911
▁오랜	-11.1915
▁con	-11.1915
번라인	-11.1918
~5	-11.192
▁한수	-11.1921
▁지점이	-11.1925
▁발생하면	-11.1926
ty	-11.193
▁말해	-11.1931
일텐데	-11.1932
▁돌려야	-11.1933
언어로	-11.1935
널	-11.1936
he	-11.1938
▁설정하는	-11.1938
▁will	-11.1946
냈	-11.1947
▁소요됩니다	-11.1947
아무래도	-11.1948
일반적으로	-11.1949
오늘	-11.1949
▁없었네요	-11.195
▁떠요	-11.195
▁아니었네요	-11.1952
solved	-11.1952
=8	-11.1955
▁붙어있	-11.1956
▁내용물	-11.1957
▁채널	-11.1958
▁알아내	-11.1959
▁비쥬얼	-11.196
▁부분수열	-11.1961
▁밀	-11.1963
▁측면에서	-11.1964
주셨으면	-11.1964
▁데이터입니다	-11.1969
▁생성하는	-11.197
▁1/2	-11.1972
▁BigInteger	-11.1973
▁좌	-11.1973
ls	-11.1977
▁갱신되	-11.1977
▁눌러	-11.1978
▁땅	-11.198
▁tuple	-11.1981
▁같아서요	-11.1988
▁되셨으	-11.1989
▁틀린지	-11.1989
작	-11.199
ut	-11.1991
긴한데	-11.1994
▁입력도	-11.1994
▁종이	-11.1994
/7	-11.1995
▁나가	-11.1997
중에서	-11.1998
▁이부분	-11.2
▁소지	-11.2
이해	-11.2001
▁의미인지	-11.2001
▁쓰실	-11.2002
▁125	-11.2002
방향으로	-11.2007
른	-11.2008
있었습니다	-11.2011
▁효과	-11.2015
▁섞어쓰	-11.2015
는데요	-11.2016
주소	-11.2016
▁해볼	-11.2021
▁---	-11.2024
▁하셨나요	-11.2024
▁향상	-11.2024
▁합으로	-11.2026
▁할것	-11.2026
해집니다	-11.2028
ai	-11.203
자리를	-11.2032
억까지	-11.2034
▁잇는	-11.2036
▁질문자분	-11.2037
▁포인터로	-11.2037
이전	-11.2041
▁해주신	-11.2042
▁0.1	-11.2042
▁생각해요	-11.2043
차원으로	-11.2046
▁최근	-11.2047
▁필요없는	-11.2048
▁입력받	-11.2052
그게	-11.2054
▁주어지는데	-11.2058
▁수와	-11.2063
▁비례	-11.2065
=6	-11.2066
▁컴퓨터에서	-11.2066
▁비효율적이	-11.2067
▁그런게	-11.2068
▁가능한데	-11.207
9,	-11.2075
리스트를	-11.2076
▁테크닉	-11.208
▁피벗	-11.208
▁연락	-11.208
▁부릅니다	-11.208
▁배경	-11.208
그때	-11.2081
낸	-11.2082
시킵니다	-11.2082
▁않았던	-11.2082
▁입력받으려면	-11.2082
▁고민해보겠습니다	-11.2082
▁아니었군요	-11.2082
▁없어집니다	-11.2083
sait	-11.2084
▁어렵	-11.2084
▁문제인것	-11.2085
▁pi	-11.2085
행렬	-11.2085
copy	-11.2086
▁디스크립션	-11.2086
영역	-11.2086
추가적으로	-11.2088
▁붙어서	-11.2089
▁구슬	-11.2091
▁maximum	-11.2092
▁탐색해야	-11.2093
받았습니다	-11.2097
▁최소공배수	-11.2099
fa	-11.2104
▁낫	-11.2105
▁소숫점	-11.2106
▁호	-11.2107
이유는	-11.2107
▁순간에	-11.2111
된다	-11.2111
▁사고	-11.2112
▁ᄏᄏᄏᄏᄏᄏ	-11.2113
▁어렵지	-11.2115
냐면	-11.2117
익	-11.2117
▁처리됩니다	-11.212
할수	-11.2125
▁랑	-11.2125
▁컴파일러에서	-11.2128
▁드	-11.2131
▁current	-11.2132
▁방식에	-11.2134
HH	-11.2143
별도의	-11.2153
▁순서만	-11.2155
▁값들은	-11.2158
/..."	-11.2163
▁없는거	-11.2163
512	-11.2164
▁작기	-11.2164
▁ide	-11.2169
0%	-11.2172
▁보았는데	-11.2174
▁점의	-11.2175
▁성능이	-11.2178
낼	-11.2179
▁트리로	-11.2181
▁답변은	-11.2183
▁파이썬을	-11.2183
▁수치	-11.2184
▁치고	-11.2185
▁ary	-11.2191
ED	-11.2195
연속해서	-11.2195
푸	-11.22
.15	-11.2202
▁2^31	-11.2206
강	-11.2207
셨는데	-11.2208
gh	-11.221
짐	-11.2217
깁니다	-11.2217
▁않으신	-11.2217
▁분은	-11.2217
▁권장드립니다	-11.2217
▁변화가	-11.2217
▁싶었는데	-11.2218
▁제한시간	-11.2218
▁말하자면	-11.2219
▁힘드네요	-11.222
▁작다면	-11.2222
order	-11.2223
▁않았다면	-11.2223
️	-11.2223
▁제출해봤는데	-11.2223
prime	-11.2224
간단한	-11.2224
그렇군요	-11.2224
▁수정해보겠습니다	-11.2225
▁방문했던	-11.2231
원이	-11.2232
▁최솟값이	-11.2235
▁판단하고	-11.2235
▁탐색하지	-11.2235
▁찾으실	-11.2236
▁파란색	-11.2237
힌트를	-11.224
▁10^18	-11.2244
▁팩토리얼	-11.2245
▁마치	-11.2248
▁것이다	-11.225
▁모르겠습니다만	-11.2251
the	-11.2253
셨다면	-11.2257
▁상근이	-11.2259
▁계수	-11.2259
▁버스	-11.2264
▁나누어서	-11.2264
루프	-11.2269
▁절댓값이	-11.2282
▁영향이	-11.2285
▁방식으로는	-11.2288
▁확률	-11.229
▁푸시	-11.229
▁방지	-11.2292
▁문자에	-11.2292
▁1);	-11.2294
결	-11.2296
▁컴파일러에	-11.2299
lower	-11.23
▁링크에	-11.2301
▁간선들	-11.2302
▁나이가	-11.2302
)-1	-11.2304
▁덮어	-11.2306
▁셋째	-11.2306
▁첨부해	-11.2309
▁좌표에	-11.231
▁만나는	-11.2313
따	-11.2316
▁저처럼	-11.2316
▁언급한	-11.232
▁경우라면	-11.232
▁----	-11.2321
mp	-11.2323
▁화	-11.2326
질문을	-11.2331
반면	-11.2335
▁불러	-11.2335
기를	-11.2337
▁복사하는	-11.234
▁리가	-11.2345
▁안전	-11.2346
▁ps	-11.235
▁유추	-11.235
▁낸	-11.235
▁fault	-11.2356
▁벗어납니다	-11.2356
▁학습	-11.2356
▁들자면	-11.2356
▁착각했네요	-11.2357
▁몰랐는데	-11.2358
▁찾습니다	-11.2358
▁찾아보겠습니다	-11.2358
▁넣습니다	-11.2358
▁풀립니다	-11.236
▁정성	-11.236
▁짜리	-11.236
▁퀸	-11.236
▁올려주시면	-11.2361
▁제안합니다	-11.2362
▁한줄에	-11.2364
▁생각에	-11.2364
type	-11.2365
▁행동	-11.2366
프로그램	-11.2368
▁바뀌어	-11.2369
음에도	-11.2371
Size	-11.2372
▁표현은	-11.2373
▁들어있을지	-11.2376
▁줄까지	-11.2378
▁생각지도	-11.2379
▁방문하고	-11.2379
▁셋	-11.2384
▁정도면	-11.2386
뿐입니다	-11.2388
▁어이없는	-11.2391
""	-11.2392
▁일의	-11.2394
라는게	-11.2396
▁논리적	-11.2397
▁의도대로	-11.24
할때마다	-11.2401
수의	-11.2401
▁바꿨는데도	-11.2402
▁저지가	-11.2403
▁대기	-11.2406
▁커야	-11.2406
let	-11.241
▁hour	-11.2412
▁조건과	-11.2417
▁되었으면	-11.2419
[1][0]	-11.2422
▁위치로	-11.2429
그러	-11.2429
lib	-11.2431
▁2500	-11.2432
▁10000000	-11.2437
함수로	-11.2439
▁실행하고	-11.2439
써	-11.244
문자가	-11.2441
▁됬	-11.2442
▁버리고	-11.2445
▁벗어나지	-11.2446
▁low	-11.2448
들로	-11.2448
▁auto	-11.245
ss	-11.2453
셔도	-11.2453
><	-11.2454
-3)	-11.2457
▁정렬해서	-11.2461
해보시길	-11.247
▁문자열에서	-11.2471
▁사용했는데	-11.2478
▁추가해도	-11.2484
//2	-11.2484
▁나이	-11.2486
1]	-11.2488
▁일반적	-11.2489
▁감싸	-11.2491
다는게	-11.2492
▁대소	-11.2493
▁안되어	-11.2496
막	-11.2496
html	-11.2497
▁기울기	-11.2497
그나저나	-11.2497
readFileSync	-11.2497
▁대칭	-11.2497
▁없으며	-11.2497
▁nlogn	-11.2497
▁있으실까요	-11.2498
▁동의합니다	-11.25
▁아니며	-11.25
▁108	-11.2501
현	-11.2504
▁12,	-11.2505
Sum	-11.2506
▁성립합니다	-11.2507
que	-11.2507
down	-11.2508
갯수	-11.2508
당연히	-11.2508
break	-11.2508
오른쪽	-11.2508
함으로써	-11.2509
_{	-11.2511
%2	-11.2513
▁각각에	-11.2513
▁도착점	-11.2514
▁처리하기	-11.2514
답니다	-11.2515
입출력	-11.2515
▁readLine	-11.2516
채	-11.2516
할게요	-11.2516
dir	-11.2517
dict	-11.2517
겠다	-11.2518
▁웹	-11.2518
▁빠르고	-11.2519
▁틀렸는데	-11.2519
▁vscode	-11.2521
null	-11.2523
▁자문자답입니다	-11.2524
▁되어버립니다	-11.2526
▁직전에	-11.2527
버린	-11.2528
▁그래야	-11.2531
해봤습니다	-11.2531
▁도대체	-11.2532
▁출력해보세요	-11.2532
▁문제라면	-11.2533
▁본인이	-11.2533
▁상위	-11.2534
be	-11.2537
▁103	-11.2538
ᅮᅮᅮ	-11.2538
▁더해주는	-11.2539
▁보여주는	-11.254
▁확률로	-11.2544
)/2	-11.2544
▁계단을	-11.2546
▁이해하면	-11.2549
▁그러지	-11.2553
▁하세요	-11.2555
▁태	-11.2555
50000	-11.2557
▁군데	-11.2557
▁INT	-11.2558
▁반올림을	-11.256
▁해줍니다	-11.256
▁뿐이고	-11.2562
버	-11.2574
CC	-11.2575
~20	-11.2577
반례를	-11.2579
▁올려야	-11.2581
코드에서	-11.2591
▁height	-11.2591
▁답에	-11.2596
▁정답이네요	-11.2596
,&	-11.2604
이었네요	-11.2606
▁별도	-11.2608
▁모르기	-11.2608
▁정답에	-11.2608
과정에서	-11.2609
▁할당한	-11.2611
▁전체가	-11.2614
▁이문제	-11.2615
.11	-11.262
구간	-11.2624
▁아니니	-11.2634
▁커버	-11.2634
해줘서	-11.2637
▁Number	-11.2638
▁갱신하는	-11.2638
▁균형	-11.2639
▁얻는	-11.2639
▁얻은	-11.2639
▁일일히	-11.2639
▁토큰	-11.264
▁늦었지만	-11.264
▁계정	-11.2642
▁돌아가는데	-11.2643
▁빠졌네요	-11.2644
▁찾아봤는데	-11.2648
)2	-11.2649
▁간선으로	-11.2649
▁저장을	-11.2651
▁초기에	-11.2652
111111	-11.2653
▁랭킹	-11.2656
▁실행되고	-11.2658
▁')	-11.2659
▁링크드	-11.2659
▁뭔	-11.2661
쉽게	-11.2662
▁맞으면	-11.2664
▁짧	-11.2665
▁고민하고	-11.2666
하니깐	-11.2669
▁지문이	-11.2673
▁몰라도	-11.2674
▁종료되지	-11.2675
▁풀이입니다	-11.2677
▁설정하고	-11.2679
▁시간제한이	-11.2681
4%	-11.2689
▁막대	-11.2691
▁다음은	-11.2692
^(	-11.2693
▁검수자	-11.2693
▁사용했을	-11.2694
▁기여	-11.2695
따로	-11.2697
Cnt	-11.2698
되요	-11.27
▁(1,2)	-11.2706
▁over	-11.2708
▁파이썬에서는	-11.2712
행과	-11.2713
방식	-11.2714
시다	-11.2716
맞은	-11.2717
▁설정되어	-11.2722
▁봐야겠네요	-11.2723
▁자연수가	-11.2726
▁시작하기	-11.2726
▁악	-11.2727
▁구조가	-11.2729
▁주소에	-11.2734
▁선언이	-11.2735
개면	-11.2736
▁했군요	-11.2737
평	-11.2738
▁조절	-11.2742
▁라	-11.2745
▁읽어야	-11.2745
시길	-11.2749
EA	-11.2749
거예요	-11.2753
▁있었을	-11.2754
▁clear	-11.2756
▁하나입니다	-11.2761
▁전자는	-11.2762
def	-11.2764
민	-11.2769
▁신입	-11.2775
ᄏᄏᄏᄏᄏ	-11.2776
▁거예요	-11.2776
▁연결하는	-11.2778
▁블로그에	-11.2779
dd	-11.2781
▁리프	-11.2785
말씀	-11.2789
▁생기네요	-11.279
▁확인하였습니다	-11.279
▁걸리네요	-11.2791
▁접근은	-11.2793
▁브론즈	-11.2793
▁최소화	-11.2794
▁올렸네요	-11.2795
ᅳ	-11.2797
병	-11.2797
INF	-11.2798
SIZE	-11.2799
flag	-11.28
alpha	-11.28
무슨	-11.28
이러면	-11.28
strcmp	-11.2801
▁계산하기	-11.2802
▁예제와	-11.2803
▁순환	-11.2803
▁편한	-11.2804
▁다음에는	-11.2807
▁있으시면	-11.2808
▁안나오네요	-11.2808
▁해야하는	-11.2809
▁선언만	-11.2809
▁scanner	-11.2811
▁값입니다	-11.2811
▁퀵	-11.2811
▁질문과	-11.2811
▁바꿔봤는데	-11.2812
▁음수를	-11.2813
▁따옴표	-11.2816
▁원래는	-11.2817
▁공부할	-11.282
▁배추	-11.2821
▁뒤에서	-11.2821
되었고	-11.2823
▁rank	-11.2824
▁패스	-11.2826
▁해석이	-11.2827
하시길	-11.2829
]))	-11.2829
▁차라리	-11.283
중입니다	-11.2832
▁작성하고	-11.2834
▁감사합니다ᄒᄒ	-11.2834
해놓고	-11.2835
지고	-11.2836
번째로	-11.2837
▁절	-11.2838
▁;;	-11.2839
▁계열	-11.2839
놨	-11.2841
▁어딘가에	-11.2841
▁접근하기	-11.2843
▁입력하고	-11.2847
.1)	-11.2847
▁숫자만	-11.2854
차이	-11.2858
▁이나	-11.2858
▁맞긴	-11.2859
▁발생하는지	-11.2861
▁card	-11.2862
▁pointer	-11.2864
▁Arrays	-11.2866
▁생각해보	-11.2867
9)	-11.2867
▁추가를	-11.2869
▁계산된	-11.2873
▁소요	-11.2873
▁원소로	-11.2876
▁의문	-11.2876
▁바람에	-11.2879
▁수정하셔야	-11.288
eg	-11.2881
이해가	-11.2882
▁몰라	-11.2884
▁BWBWBWBW	-11.2894
▁출력에서	-11.2898
▁수정하지	-11.2903
▁들어오게	-11.2907
그것	-11.2913
▁비슷하	-11.2913
▁보시길	-11.2915
▁알아보	-11.2916
▁non	-11.2917
목	-11.2917
▁고수님	-11.2918
▁출력하는데	-11.2918
코	-11.292
▁상황에서는	-11.292
ᅲᅮ	-11.2922
1001	-11.2923
▁나오는거	-11.2924
▁해놓고	-11.2924
12345	-11.2927
▁잘못되었	-11.2928
씨	-11.293
▁짰는데	-11.2931
▁콤마	-11.2931
▁힘듭니다	-11.2931
▁달라집니다	-11.2932
▁모습	-11.2932
▁{1,	-11.2932
▁힘든	-11.2934
▁구현에	-11.2935
ter	-11.2936
MS	-11.2936
▁다르네요	-11.2936
▁근거	-11.2937
▁on	-11.2939
▁풀리네요	-11.294
▁wrong	-11.294
▁확인해보겠습니다	-11.294
▁합쳐서	-11.294
억으로	-11.294
야하는데	-11.2941
▁없으니까요	-11.2941
▁순회하는	-11.2941
▁you	-11.2943
▁잠깐	-11.2945
ill	-11.2946
▁lazy	-11.2946
▁반환할	-11.2947
▁추가하지	-11.2949
BufferedReader	-11.2949
▁총합	-11.2949
드릴	-11.295
▁붙이	-11.295
▁가네요	-11.295
▁(5	-11.2951
▁에디토리얼	-11.2952
▁제출하니까	-11.2953
▁타입은	-11.2954
▁쓰시	-11.2954
▁곱해서	-11.2955
▁말아야	-11.2955
▁임	-11.2955
아래의	-11.2958
▁당시	-11.2959
▁옳은	-11.2959
(3	-11.2963
둘째	-11.2964
봐	-11.2965
▁중요하	-11.2966
▁풀었던	-11.2967
▁답도	-11.2969
▁유클리드	-11.297
▁하위	-11.2974
▁저것	-11.2974
▁전제	-11.2974
▁설정하면	-11.2975
▁맞는것	-11.2979
.........	-11.2979
정작	-11.298
op	-11.2981
▁넣어보	-11.2981
삭제	-11.2981
▁can	-11.2989
임이	-11.2994
씁니다	-11.2995
▁먹고	-11.2999
▁케이스입니다	-11.3
▁작성해서	-11.3001
공부	-11.3002
▁귀찮	-11.3003
!!!!!!!	-11.3006
번줄을	-11.3009
▁뿐이지	-11.3011
보시길	-11.3011
▁가져오	-11.3017
▁아니게	-11.3017
```	-11.3018
▁모양이	-11.302
라던지	-11.302
버리	-11.3024
▁쓰셨	-11.3028
▁기본값	-11.303
직	-11.303
텐데요	-11.3032
227	-11.3035
▁댓글에	-11.3036
tur	-11.3037
▁println	-11.3039
버렸	-11.3039
하였을	-11.304
이기때문에	-11.3041
▁갯수는	-11.3044
▁검사하고	-11.3045
▁방문처리를	-11.3045
▁이라	-11.3055
▁해봐도	-11.3055
▁학생들	-11.3057
▁연산입니다	-11.306
)+	-11.3067
건가	-11.307
▁터지	-11.3071
▁고를	-11.3076
팅	-11.3077
cs	-11.3078
갑	-11.308
▁팬이에요	-11.3081
▁캐치	-11.3081
hongjun	-11.3081
▁맞춘	-11.3081
▁검사하지	-11.3081
▁재방문	-11.3081
27211	-11.3082
▁끝납니다	-11.3082
▁당연합니다	-11.3083
▁시작하고	-11.3083
나오는	-11.3083
하게끔	-11.3084
▁편의	-11.3085
▁셀프	-11.3085
▁뒤쪽	-11.3085
▁무리	-11.3085
▁많으면	-11.3089
▁풀릴	-11.3089
▁실수했네요	-11.3091
456	-11.3092
▁등은	-11.3095
▁???	-11.3096
▁dictionary	-11.3096
괄호	-11.3096
=[	-11.3096
망	-11.3099
({	-11.31
replace	-11.31
▁하나인	-11.3101
▁일치하지	-11.3103
여기에	-11.3103
▁혼자서	-11.3104
▁만드신	-11.3106
▁병합	-11.3107
지금은	-11.3108
▁나오지만	-11.311
▁자식이	-11.3111
▁폭발	-11.3112
▁읽었	-11.3113
aaa	-11.3113
▁before	-11.3114
▁표현하면	-11.3114
cal	-11.3116
▁정확하지	-11.3116
▁보셔야	-11.3117
▁바꿨	-11.3124
▁편입니다	-11.313
▁같을때	-11.3131
▁대회가	-11.3132
▁parseInt	-11.3133
▁이론	-11.3134
▁걸러	-11.3135
ky	-11.3136
▁답과	-11.3137
▁제외하면	-11.314
▁뱀	-11.314
▁동작하는지	-11.3147
등이	-11.3147
▁2),	-11.315
▁설정한	-11.315
AAAAAAAAAAAAAAAA	-11.3156
▁문제였던	-11.3159
▁질문하신	-11.3162
성을	-11.3167
▁않다는	-11.3168
▁테스트케이스에서	-11.317
▁내용입니다	-11.3171
▁섞	-11.3171
▁명령이	-11.3174
▁제출하는	-11.3176
▁의한	-11.3177
▁감사합니다ᅮᅮ	-11.3181
▁튜플	-11.3181
▁찍어	-11.3184
되어있는	-11.3184
▁104	-11.3187
▁찾는데	-11.3191
▁1<=	-11.3192
▁잡았	-11.3193
▁질문글에	-11.3194
지기	-11.3199
▁해결되지	-11.3199
cm	-11.32
▁해줄	-11.3207
109	-11.3208
-2,	-11.3208
▁반환하기	-11.3208
..............	-11.3209
▁주변	-11.3209
ub	-11.321
기만	-11.3221
▁마시	-11.3222
▁텍스트	-11.3222
▁함수들	-11.3223
OO	-11.3223
나면	-11.3226
***	-11.3228
▁0~9	-11.3229
케	-11.3231
립	-11.3231
링	-11.3231
▁천재	-11.3232
▁치킨	-11.3232
BB	-11.3232
▁왠지	-11.3232
▁그다지	-11.3233
▁넣었더니	-11.3233
▁생각못했네요	-11.3235
▁받으시면	-11.3237
하시지	-11.3237
▁좋네요	-11.3238
▁해결되었네요	-11.3239
수열	-11.3242
cent	-11.3243
볼게요	-11.3243
▁공백문자	-11.3243
▁추가해주세요	-11.3244
▁작동할	-11.3245
)/(	-11.3246
▁해보는	-11.3247
▁들어있습니다	-11.3249
▁생각했던	-11.3249
▁덩어리	-11.325
▁붙이고	-11.325
▁LCA	-11.325
▁비어있을	-11.3251
lt	-11.3252
일때만	-11.3253
▁며칠	-11.3254
기준	-11.3254
child	-11.3254
학생	-11.3255
새로운	-11.3255
▁다르다	-11.3256
▁풀려고	-11.3257
아무	-11.3258
poll	-11.3261
▁logN	-11.3261
▁가능하지만	-11.3262
사항	-11.3264
(&	-11.3266
▁단계별로	-11.3267
▁알려주는	-11.3269
나마	-11.3273
▁연관이	-11.3274
▁길게	-11.3276
▁보드	-11.3276
▁점에	-11.3278
▁ll	-11.3279
▁저기서	-11.3279
▁하다보니	-11.3281
▁슬랙	-11.3282
▁args	-11.3284
했으므로	-11.3287
▁종료가	-11.329
▁통과는	-11.329
99999	-11.329
[1][2]	-11.3291
시나요	-11.3293
▁있었고	-11.3294
▁사용하는데	-11.3302
자를	-11.3303
주고	-11.3305
zz	-11.3308
▁반복되는	-11.3311
▁스택으로	-11.3312
▁입장에서는	-11.3313
▁성립하지	-11.3315
:10	-11.3315
▁글자만	-11.3315
3%	-11.3323
▁대단	-11.3332
▁체크해	-11.3332
.12	-11.3333
▁아닌것	-11.3335
▁하고요	-11.3336
▁신경쓰	-11.3337
▁말로	-11.334
▁채점하는	-11.3343
▁커지	-11.3345
▁걸렸	-11.3346
▁실행된	-11.335
▁더할	-11.3353
▁read	-11.3355
mo	-11.3355
]++;	-11.3362
▁생각입니다	-11.3366
▁든	-11.3367
름	-11.3369
▁수십	-11.3371
▁생겨	-11.3371
▁해결되는	-11.3372
▁행위	-11.3374
하시거나	-11.3382
▁방지하기	-11.3384
codeforces	-11.3386
▁사례	-11.3386
▁장소	-11.3387
▁간과했네요	-11.3387
▁EOFError	-11.3387
);}	-11.3388
째줄	-11.339
▁아니더라도	-11.3391
1010	-11.3392
xx	-11.3392
▁돌아가네요	-11.3394
ga	-11.3395
▁뭐죠	-11.3396
▁하는건가요	-11.3396
▁기억합니다	-11.3399
struct	-11.3399
▁$1$	-11.34
▁박스	-11.3401
▁고민하다가	-11.3401
봤을	-11.3404
▁이어야	-11.3405
▁넣어줘야	-11.3406
담	-11.3406
▁멀	-11.3406
▁제출하시면	-11.3407
▁힙에	-11.3408
▁ctrl	-11.341
ka	-11.341
▁버그가	-11.341
ting	-11.3411
잘못된	-11.3413
ru	-11.3414
하는군요	-11.3415
▁물어보	-11.342
▁고려를	-11.342
▁직접적으로	-11.342
▁문제번호	-11.3422
▁중입니다	-11.3428
▁지금의	-11.3428
▁생기면	-11.3431
▁다르고	-11.3436
▁버림	-11.3437
▁쓰는데	-11.3438
▁코인	-11.344
것같	-11.3442
▁diff	-11.3445
▁직전	-11.3446
버릴	-11.3447
량이	-11.3448
▁초과로	-11.3448
▁올리면	-11.3449
▁틀린게	-11.345
▁많은데	-11.3451
▁스택에서	-11.3456
[1,	-11.346
제한	-11.3461
해주니	-11.3462
▁존재하는지	-11.3462
▁고수님들	-11.3467
▁함수와	-11.3467
▁정도만	-11.3467
dl	-11.3472
▁했다고	-11.3473
▁담아	-11.3475
개나	-11.3479
▁체력	-11.348
▁선택할	-11.3484
▁ms	-11.3487
▁해보셨나요	-11.3489
▁만날	-11.3489
▁분자	-11.349
▁올렸	-11.3493
▁수행하고	-11.3495
쳤	-11.3495
▁절댓값	-11.3496
▁효과를	-11.3497
▁지식이	-11.3497
▁냈	-11.3497
▁추	-11.3502
▁정하는	-11.3504
해보도록	-11.3507
▁것이니	-11.351
▁손님	-11.3513
▁배제	-11.3513
▁거니까	-11.3522
▁구글	-11.3522
▁골라	-11.3524
▁부분과	-11.3526
ᄃ	-11.353
ry	-11.3535
▁vitae	-11.3542
▁서술	-11.3542
▁깜빡했네요	-11.3543
▁멍청했네요	-11.3543
▁자답	-11.3543
▁ccw	-11.3544
▁정답률	-11.3544
▁-1)	-11.3546
▁자체적으로	-11.3548
▁터지는	-11.355
었지만	-11.3551
▁들어와서	-11.3552
▁방법대로	-11.3552
▁분해	-11.3554
▁됐	-11.3555
▁치킨집	-11.3558
▁결과입니다	-11.3559
▁타고	-11.3559
▁발생하여	-11.356
▁0.0	-11.356
▁안돼요	-11.356
▁한쪽	-11.3562
▁잡아서	-11.3562
해버리면	-11.3564
음을	-11.3564
▁안될까요	-11.3566
nt	-11.3566
았네요	-11.3566
쌍	-11.3567
▁표기법	-11.3568
▁났습니다	-11.3568
distance	-11.3569
됬습니다	-11.3569
Java	-11.357
특정	-11.357
self	-11.357
▁집합에	-11.3572
능	-11.3573
▁말씀해	-11.3575
▁동적계획법	-11.3579
▁인풋이	-11.3583
▁몰아	-11.3586
▁대체로	-11.3586
▁도시에서	-11.3587
차원배열	-11.3592
▁사용됩니다	-11.3595
po	-11.36
▁녀석	-11.36
▁암	-11.3603
(3,	-11.3608
▁것이지요	-11.3608
셔	-11.3609
▁끝나야	-11.3613
▁삼	-11.3615
ignore	-11.3615
하는것	-11.3616
▁풀어보시는	-11.3616
▁메	-11.362
▁예제입력	-11.3623
▁실행시켜	-11.3623
▁갓	-11.3624
▁가고	-11.3625
되어있습니다	-11.3628
▁차지하는	-11.3629
▁먹는	-11.363
▁걸리기	-11.3632
}$	-11.3632
▁다르다는	-11.3635
▁해봐야겠네요	-11.3637
▁명제	-11.3639
▁흑흑	-11.3643
▁적용할	-11.3645
식을	-11.3646
▁줄인	-11.3649
▁아슬아슬하	-11.3658
bc	-11.3658
▁있을거	-11.3662
▁넘겨주는	-11.3663
▁끝점	-11.3664
▁구성되어	-11.3666
▁나와도	-11.3666
▁호출되는	-11.3667
ᄃᄃ	-11.3669
거같	-11.3672
▁섞여	-11.3672
▁할당할	-11.3672
▁이부분을	-11.3673
▁정점과	-11.3674
ptr	-11.3675
1111	-11.3675
▁흑	-11.3676
▁작아	-11.3677
▁글들	-11.3677
▁도착하는	-11.3677
조건문	-11.3681
▁드리고	-11.3682
저런	-11.3683
pt	-11.3685
▁질문으로	-11.3686
언어에서	-11.3687
배열로	-11.3687
▁끝내	-11.3692
▁ᄋ	-11.3693
▁해보시길	-11.3693
▁어디에서	-11.3695
기존	-11.3695
▁알고리즘입니다	-11.3695
▁이번에	-11.3695
▁이름으로	-11.3696
▁고른	-11.3698
▁살펴보면	-11.3699
▁종료하는	-11.3699
술	-11.37
df	-11.37
락	-11.37
힐	-11.37
▁바꿈	-11.3701
▁바퀴	-11.3701
▁스트릭	-11.3701
▁움직임	-11.3701
▁호제법	-11.3701
어짜피	-11.3701
▁늦어	-11.3701
▁가짓수	-11.3701
▁옳	-11.3702
▁switch	-11.3702
▁손실	-11.3703
▁GCC	-11.3704
▁바꿔주	-11.3704
▁색종이	-11.3711
▁느리게	-11.3713
오는	-11.3714
▁프로젝트	-11.3715
▁예측	-11.3715
군	-11.3717
*5	-11.3718
mb	-11.3718
머	-11.3721
▁행렬을	-11.3723
▁위치한	-11.3723
형에	-11.3724
관련	-11.3726
▁벗어나서	-11.3727
하겠네요	-11.3728
할때는	-11.3728
악	-11.3729
▁복구	-11.3729
+=1	-11.3729
-0	-11.373
접근	-11.373
reference	-11.373
디버깅	-11.3731
저렇게	-11.3731
▁연산에서	-11.3733
해봐도	-11.3735
)"	-11.3736
해봅니다	-11.374
▁bit	-11.3742
▁반복하게	-11.3742
▁수행합니다	-11.3743
▁받았는데	-11.3743
있다면	-11.3744
든지	-11.3745
0010	-11.3748
용으로	-11.3748
▁하는것	-11.375
▁MB	-11.3751
▁숫자에	-11.3751
▁write	-11.3751
▁130	-11.3752
▁같고요	-11.3754
▁Test	-11.3754
▁이러	-11.3754
진법으로	-11.3759
▁하게되면	-11.376
가지가	-11.3762
▁구합니다	-11.3763
math	-11.3764
▁활용하면	-11.3768
▁잘못한	-11.377
자체가	-11.377
(10)	-11.3771
▁버	-11.3778
▁좋고	-11.3778
>>>	-11.3781
▁초기화됩니다	-11.3785
/0	-11.3787
▁계시	-11.3787
▁Sort	-11.3791
미만	-11.3799
▁모르	-11.38
▁많지	-11.38
999999	-11.3802
방식으로	-11.3802
께	-11.3803
▁세워	-11.3804
▁검사하기	-11.3805
았는데	-11.3805
▁이득이	-11.3806
▁용도	-11.3807
▁이지만	-11.3807
▁처리된	-11.381
▁==>	-11.3811
않는	-11.3811
▁삽입하는	-11.3812
해보자면	-11.3813
▁1,2,3	-11.3817
-1;	-11.3819
거는	-11.3822
>(	-11.3823
▁형식에	-11.3827
▁컴파일이	-11.3827
말이	-11.3829
▁버립니다	-11.383
▁있는걸	-11.3831
하셨을	-11.3831
▁부르는	-11.3833
)0	-11.3836
▁뒤집	-11.3838
BC	-11.3838
▁때부터	-11.3839
▁child	-11.3839
222	-11.3839
▁나타나	-11.384
▁버전이	-11.384
▁다름	-11.3841
반복	-11.3842
▁계산하게	-11.3843
경우는	-11.3844
▁수행해야	-11.3851
라인에	-11.3853
eu	-11.3854
▁풀어본	-11.3856
sub	-11.3856
▁택	-11.386
▁탐색한	-11.386
쓴	-11.3861
▁has	-11.3862
▁이런거	-11.3862
▁얻고	-11.3862
VALUE	-11.3862
▁적당한	-11.3862
[^\	-11.3862
▁'9'	-11.3863
▁기반	-11.3863
▁구구구구구구	-11.3864
▁테스트케이스에	-11.3864
▁투표	-11.3864
▁넣으니까	-11.3864
▁일종	-11.3865
▁바꾸기	-11.3866
▁MST	-11.3866
▁'3'	-11.3866
▁그랬네요	-11.3868
able	-11.3869
▁해석할	-11.3871
거라면	-11.3872
▁이분탐색으로	-11.3875
▁깔끔한	-11.3878
▁말씀처럼	-11.3879
▁아시는	-11.388
▁random	-11.3883
▁진행됩니다	-11.3883
짓	-11.3884
ick	-11.3885
근	-11.3886
ak	-11.3887
▁막아	-11.3888
▁출력되게	-11.3889
▁capacity	-11.3889
ᅵ	-11.3892
시간동안	-11.3893
▁한국어	-11.3893
clear	-11.3894
memset	-11.3896
루트	-11.3896
감사드립니다	-11.3899
▁될까	-11.3901
▁하자면	-11.3901
▁것보다는	-11.3902
▁안으로	-11.3903
▁적으면	-11.3904
▁화면	-11.3907
100000000	-11.3909
▁조건의	-11.3909
십니다	-11.3911
겠다고	-11.3912
pp	-11.3912
문과	-11.3913
▁제외하고는	-11.3914
이었다면	-11.3916
세로	-11.3924
▁횟수만큼	-11.3924
234	-11.3925
per	-11.3926
▁올리지	-11.3927
▁될텐데	-11.3931
▁해결해	-11.3932
▁접근해야	-11.3933
cho	-11.3935
250	-11.3938
쓰는	-11.3939
700	-11.3942
gu	-11.3943
▁벌	-11.3947
▁목록	-11.3947
▁이진수	-11.395
▁내용에	-11.3951
매번	-11.3954
▁유도	-11.3954
번지	-11.3957
▁참가자	-11.3963
▁될듯	-11.3963
▁많기	-11.3964
▁모르겠고	-11.3967
▁ᅲᅲᅲᅲᅲᅲ	-11.397
▁컴파일러에서는	-11.3971
▁OS	-11.3972
▁허용하지	-11.3973
▁'1	-11.3973
789	-11.3981
▁음수일	-11.3985
▁이내	-11.3987
nm	-11.3988
음수	-11.3989
em	-11.399
con	-11.3994
▁이차원	-11.3994
개행	-11.3997
▁퍼	-11.3998
거구요	-11.3998
▁실행한	-11.3999
▁거쳐	-11.4005
침	-11.4008
▁1.0	-11.4008
있으므로	-11.4009
▁반례입력	-11.401
하냐	-11.401
▁집어넣	-11.401
▁*)	-11.4011
▁추가가	-11.4015
▁운영	-11.4016
▁무작	-11.4021
abcd	-11.4022
▁없으니까	-11.4024
+1][	-11.4025
▁[0]	-11.4026
리가	-11.4026
basic	-11.4026
linux	-11.4026
▁아쉽네요	-11.4026
▁웬만하면	-11.4026
▁유심히	-11.4026
▁만듭니다	-11.4027
▁소팅	-11.4027
할것	-11.4027
▁다룰	-11.4027
▁같구요	-11.4027
▁대강	-11.4028
▁곧바로	-11.4028
▁해결되었어요	-11.4029
▁넘으면	-11.4029
▁맞죠	-11.4032
(4,	-11.4033
▁점화식이	-11.4034
▁재배열	-11.4035
▁부수	-11.4036
pr	-11.4036
▁122	-11.4039
▁system	-11.4041
▁아니다	-11.4041
▁끊어	-11.4043
ta	-11.4048
▁설명한	-11.4052
▁맞왜틀	-11.4054
▁감사합니다ᅲᅲᅲ	-11.4055
flush	-11.4056
▁상상도	-11.4058
ᄀ	-11.4058
rejudge	-11.4058
▁간결	-11.406
▁들어가있	-11.406
unsigned	-11.4062
▁버튼이	-11.4062
객체	-11.4062
하셨던	-11.4062
▁참조할	-11.4062
▁144	-11.4064
쓰면	-11.4065
▁자바는	-11.407
들과	-11.4071
ma	-11.4072
eof	-11.4074
▁프로그램에	-11.4076
▁sep	-11.4077
▁끄	-11.4077
▁약해서	-11.4077
▁되니까요	-11.4078
▁하였는데	-11.4081
▁dice	-11.4081
▁내주셔서	-11.4082
▁유사한	-11.4082
▁뽑	-11.4084
▁체크해야	-11.4084
▁넘어서는	-11.4085
▁우선순위큐	-11.4085
▁포드	-11.4086
▁될거같아요	-11.4088
▁범	-11.4089
는건	-11.4089
▁base	-11.409
▁반환형이	-11.409
▁좋지만	-11.4092
식이	-11.4092
▁지워도	-11.4092
▁부여	-11.4095
▁그와	-11.4096
하시려면	-11.4097
들만	-11.4099
되었는데	-11.41
▁닫는	-11.4101
2-	-11.4103
▁간과하고	-11.4103
이름	-11.4104
7)	-11.4108
▁제거한	-11.4112
거지	-11.4114
▁뽑을	-11.4115
▁인가요	-11.4122
▁해결에	-11.4128
▁초기화할	-11.4131
나옵니다	-11.4134
▁길이와	-11.4135
▁해결을	-11.4136
▁가령	-11.4139
▁de	-11.4142
▁저장되	-11.4143
▁리턴값이	-11.4143
▁day	-11.4144
▁Data	-11.4144
▁기회	-11.4147
▁지점에	-11.4152
▁나눗셈을	-11.4153
▁적지	-11.4154
▁아닐때	-11.4155
▁어떤게	-11.4156
▁활용하는	-11.4157
ash	-11.4157
▁다음부터	-11.416
번이나	-11.416
)+(	-11.4163
졌습니다	-11.4163
있다	-11.4164
정확히	-11.4165
하다는	-11.4168
▁망	-11.417
/2...	-11.4174
▁님께서	-11.4176
▁당시에	-11.4183
▁번갈아	-11.4185
▁노	-11.4186
▁받는데	-11.4188
▁극단적	-11.4188
▁표준에	-11.4192
▁사이트에	-11.4193
동적	-11.4193
▁되돌아	-11.4193
▁합칠	-11.4194
▁부순	-11.4194
▁늘어날	-11.4194
▁궁금해	-11.4195
▁세팅	-11.4195
▁감당	-11.4196
▁코	-11.4197
▁들었습니다	-11.4197
▁공부해보겠습니다	-11.4197
범위가	-11.4199
▁활용하여	-11.4202
▁거쳐서	-11.4202
▁가지치기	-11.4203
▁의미인가요	-11.4204
▁아니죠	-11.4204
었는지	-11.4204
▁대표적인	-11.4206
▁1100	-11.4207
▁들어있을	-11.4207
▁몸무게	-11.4208
▁query	-11.4208
▁이대로	-11.4208
▁개발자	-11.421
▁바꾸었	-11.421
▁알맞	-11.4211
그거	-11.4211
▁중복되지	-11.4213
Key	-11.4213
자릿수	-11.4214
▁예측할	-11.4215
▁생기게	-11.4216
▁시간복잡도로	-11.4218
▁나온다면	-11.422
▁실행시간	-11.4221
▁0-1	-11.4222
▁나기	-11.4222
커	-11.4223
개이고	-11.4224
셨는지	-11.4225
▁Long	-11.4227
▁있거나	-11.4229
▁없었던	-11.4229
▁하나당	-11.423
doju	-11.423
살	-11.423
most	-11.423
▁역방향	-11.4231
▁limit	-11.4235
하시는게	-11.4239
▁할당하고	-11.4239
▁변경하는	-11.4239
▁공백만	-11.424
하였고	-11.4242
make	-11.4247
했음에도	-11.4248
▁등장한	-11.425
▁확인하게	-11.4251
상황	-11.4256
사이에	-11.426
글자가	-11.426
▁기분	-11.4263
▁못하기	-11.4263
구구	-11.4264
[0][1]	-11.4265
+10	-11.4266
원소	-11.427
▁가는데	-11.4272
▁떠	-11.4273
▁내리	-11.4274
▁기하	-11.4274
상의	-11.4275
▁하단	-11.4276
▁색깔	-11.428
▁일반화	-11.4281
▁저건	-11.4288
]!=	-11.429
시작점	-11.4291
▁싶	-11.4292
일에	-11.4293
▁간과	-11.4295
▁숫자와	-11.4301
▁다른데	-11.4303
▁작	-11.4304
▁풀어보	-11.4305
▁Int	-11.4307
나온	-11.4307
▁왔습니다	-11.431
▁문법이	-11.4312
▁boj	-11.4316
▁쉽	-11.4316
▁대회에	-11.4317
시키	-11.4317
▁words	-11.4319
▁충분하지	-11.4321
▁뜯어	-11.4321
▁받았	-11.4322
▁윈도우	-11.4322
▁정의에	-11.4324
하되	-11.4324
▁거치	-11.4326
신다면	-11.4328
▁사람들은	-11.4329
▁흐	-11.4332
▁ptr	-11.4335
▁것이었습니다	-11.4339
(9)	-11.434
줄과	-11.434
▁250	-11.434
▁줄이고	-11.4342
▁출력하셔야	-11.4346
▁문구가	-11.4347
▁매개변수로	-11.4354
거였습니다	-11.4355
▁차이입니다	-11.4357
시키고	-11.4359
▁게시판의	-11.4361
▁묻는	-11.4362
▁스패닝	-11.4362
nputStreamReader	-11.4362
▁뱃지	-11.4362
▁키보드	-11.4363
▁재료	-11.4363
▁영원	-11.4364
[100001]	-11.4364
▁다행이네요	-11.4364
▁낫습니다	-11.4364
▁크기보다	-11.4365
▁가능할까요	-11.4366
▁되려면	-11.4368
▁답변해	-11.4368
▁커져서	-11.4369
▁자연수이다	-11.4369
▁간선은	-11.4372
▁인자는	-11.4372
▁세지	-11.4373
▁나왔던	-11.4373
지네요	-11.4373
cd	-11.4375
▁구데기컵	-11.4375
▁파일로	-11.4375
▁관리자님	-11.4376
▁*2	-11.4377
▁싹	-11.4378
채로	-11.4379
▁안나오는	-11.4379
[15]	-11.438
105	-11.438
[20]	-11.438
▁수행한	-11.4381
▁빨간색	-11.4381
▁좌측	-11.4382
▁인접행렬	-11.4382
상대적으로	-11.4383
▁500,000	-11.4383
였을	-11.4384
▁저장되지	-11.4384
▁간격	-11.4385
▁이상이어야	-11.4387
▁반면에	-11.4387
2;	-11.4388
▁어렵지만	-11.4392
▁퍼센트	-11.4393
▁없었	-11.4394
▁반복해야	-11.4399
▁못하네요	-11.4399
lee	-11.4401
▁안되지	-11.4401
▁저장될	-11.4401
잇	-11.4402
검사	-11.4402
컴퓨터	-11.4403
pypy	-11.4404
복사	-11.4404
▁이루어	-11.4405
이분탐색	-11.4405
쪽으로	-11.4405
getline	-11.4407
‍	-11.4407
ks	-11.4408
▁계산됩니다	-11.4409
▁입력해보세요	-11.4412
▁풀이의	-11.4412
▁정답코드	-11.4414
▁선언해야	-11.4416
▁안되는거	-11.4417
드릴게요	-11.4417
▁필요하고	-11.4417
▁변경해서	-11.4418
값만	-11.4419
▁영역이	-11.4425
▁bb	-11.4425
▁이라서	-11.4428
▁활용해	-11.4429
▁쓰니까	-11.4435
▁내장함수	-11.4435
▁부를	-11.4437
▁헤더에	-11.4437
▁존재하기	-11.4439
▁부분인데	-11.444
▁방향에	-11.4441
▁세어	-11.4441
inf	-11.4443
pq	-11.4444
▁부분으로	-11.4445
▁댓글이	-11.4449
▁뜻은	-11.445
▁바꾸어야	-11.4452
▁초과하게	-11.4456
(6)	-11.4459
▁감안	-11.4463
▁풀리지	-11.4464
였어요	-11.4464
▁읽으셨	-11.4467
▁단방향	-11.4468
▁지장	-11.4469
▁init	-11.4474
RR	-11.4474
pro	-11.4475
▁깨지	-11.4485
▁방법과	-11.4487
▁생각하여	-11.4487
▁불가능하	-11.4488
사이의	-11.4488
▁*=	-11.4489
▁잘못된거	-11.4489
▁text	-11.449
▁cpp	-11.449
▁만족할	-11.4492
증가	-11.4495
▁들어오는데	-11.4499
▁익히	-11.4499
해보시기	-11.4501
▁살펴보	-11.4501
▁죄송	-11.4505
다거나	-11.4513
att	-11.4513
▁하겠네요	-11.4515
되어있지	-11.4516
▁연구	-11.4521
[100000]	-11.4522
했나	-11.4523
▁입력받게	-11.4524
▁소수는	-11.4524
▁mo	-11.4526
▁단어는	-11.4527
▁글의	-11.4528
▁scc	-11.4531
나네요	-11.4533
같	-11.4534
▁정정	-11.4534
▁운영체제	-11.4535
▁스킵	-11.4535
▁빌딩	-11.4535
▁축하드립니다	-11.4535
▁추천드려요	-11.4535
▁turn	-11.4535
▁읽으라고	-11.4536
▁무엇일까요	-11.4536
▁진실	-11.4536
▁있구요	-11.4536
▁부동	-11.4536
▁되겠군요	-11.4537
▁제거하면	-11.4537
[1001]	-11.4538
▁유명	-11.4538
▁시도해보겠습니다	-11.4538
▁정의된	-11.4538
▁정신	-11.4538
▁반전	-11.4539
-7	-11.4542
▁더해야	-11.4542
▁가져오는	-11.4542
▁생각되네요	-11.4544
▁찾아보시는	-11.4544
▁사용하셔서	-11.4547
▁한칸씩	-11.4547
▁fs	-11.4548
나중에	-11.4549
형태	-11.4549
▁유효숫자	-11.4551
▁201	-11.4553
xxx	-11.4555
▁의도하지	-11.4555
▁존재하고	-11.4556
▁포함하고	-11.4556
▁공통	-11.4556
넣으면	-11.4557
▁못하겠습니다	-11.456
ear	-11.4561
▁초기화해야	-11.4564
칠	-11.4569
▁원소들이	-11.4569
느	-11.4571
▁증감	-11.4572
짝	-11.4573
교	-11.4574
▁안된다고	-11.4575
▁유사	-11.4577
▁개만	-11.4577
설정	-11.4578
종료	-11.4579
Main	-11.4579
재채점	-11.4581
Map	-11.4582
▁제출했을	-11.4582
gcc	-11.4584
god	-11.4587
알려주신	-11.4587
▁나오는군요	-11.4588
▁후에도	-11.4592
▁tail	-11.4594
▁이부분이	-11.4596
▁것이라면	-11.4597
king	-11.4599
▁풀이에서	-11.4599
▁Point	-11.46
통과	-11.4605
/3/	-11.4607
▁해보았는데	-11.4612
▁일어난	-11.4612
▁비교는	-11.4612
,000,000,000	-11.4612
▁sol	-11.4614
▁좌표의	-11.4616
▁경로로	-11.4616
▁단일	-11.4618
말씀하신대로	-11.4619
▁있으신	-11.462
▁검사해야	-11.4621
▁얼	-11.4621
▁가져가	-11.4623
▁틀리면	-11.4623
▁div	-11.4632
▁file	-11.4639
▁큐로	-11.4639
^1	-11.464
▁반복문은	-11.4641
▁correct	-11.4641
▁일입니다	-11.4642
▁헤	-11.4642
▁무지	-11.4643
▁큰수	-11.4644
▁설명하는	-11.4649
해야할	-11.465
버리네요	-11.4652
201	-11.4653
▁사는	-11.4659
▁초기화하면	-11.466
▁관	-11.4664
▁줄마다	-11.4665
)4	-11.4667
려는	-11.4669
▁비교함수	-11.467
[0];	-11.467
▁많고	-11.4672
▁[2]	-11.4674
▁구현하기	-11.4676
던가	-11.4677
▁백트래킹으로	-11.4678
231	-11.4679
▁궁금	-11.4687
▁말할	-11.4689
해둔	-11.4692
▁3.0	-11.4693
되는군요	-11.4694
Error	-11.4695
나가는	-11.4695
▁180	-11.47
볼께요	-11.4701
lj	-11.4702
▁현재까지	-11.4708
▁요소들	-11.4708
▁보는게	-11.4708
▁필요한데	-11.4709
▁읽습니다	-11.471
▁풍선	-11.471
▁줄어듭니다	-11.471
▁공간복잡도	-11.471
▁치팅	-11.4711
▁바닥	-11.4711
▁알아낼	-11.4711
▁좋겠어요	-11.4711
▁바깥에	-11.4711
▁같으므로	-11.4711
▁담긴	-11.4711
▁달아주세요	-11.4712
▁돌려보세요	-11.4712
▁넣었습니다	-11.4713
▁익숙하지	-11.4713
▁연속적으로	-11.4714
▁이용해보세요	-11.4715
▁생각했었는데	-11.4716
▁대략적으로	-11.4717
▁지나갈	-11.4718
▁이동이	-11.4718
▁가능한가요	-11.4719
333	-11.4719
▁갖게	-11.4719
▁고쳐봤는데	-11.472
▁세미콜론	-11.4721
▁오면	-11.4723
▁잡아먹는	-11.4723
▁일어나서	-11.4723
▁명시적으로	-11.4724
▁돌려본	-11.4725
▁떠오르지	-11.4725
▁삭제했습니다	-11.4726
▁JAVA	-11.473
▁막기	-11.4731
▁TypeError	-11.4733
▁사항이	-11.4734
▁확인하시면	-11.4735
납니다	-11.4736
▁오타를	-11.4736
때까지	-11.4738
▁가져다	-11.474
▁선택한	-11.4742
님께	-11.4743
▁뜻하는	-11.4744
▁해결된	-11.4749
합시다	-11.4755
koosaga	-11.4755
▁양식	-11.4756
▁stdout	-11.4756
▁돌려보니까	-11.4756
chogahui	-11.4756
▁“	-11.4756
text	-11.4757
▁성립하는	-11.4757
▁막을	-11.4758
▁컴파일러마다	-11.4761
▁줄여서	-11.4762
열을	-11.4766
▁있었다	-11.4766
높이	-11.4767
둔	-11.4768
▁')'	-11.4768
▁1,1	-11.4769
▁stone	-11.4769
▁베	-11.4771
▁two	-11.4772
▁고쳤는데도	-11.4773
백	-11.4773
▁추가되는	-11.4774
az	-11.4777
+1)/2	-11.4779
▁contains	-11.4779
▁결과물	-11.4779
▁ceil	-11.478
▁그걸로	-11.4782
▁정신이	-11.4782
일지	-11.4784
▁```	-11.4784
▁했다면	-11.4786
▁정확	-11.4786
▁같음	-11.4788
▁백준님이	-11.479
▁있는걸까요	-11.4792
▁못하지만	-11.4793
▁증가할	-11.4796
▁급	-11.4799
▁경계값	-11.4806
틀	-11.4807
▁Re	-11.4808
않아	-11.4809
▁문장에서	-11.4812
▁길이로	-11.4814
▁그다음	-11.4816
917	-11.4816
사람	-11.4818
▁"1"	-11.4821
▁12345	-11.4821
▁설정이	-11.4821
▁ᅲᅲ감사합니다	-11.4821
다보면	-11.4823
▁시작점에서	-11.4824
▁변환할	-11.4827
▁item	-11.4828
▁언어들	-11.483
▁신기	-11.484
▁증가시키는	-11.4841
이겠죠	-11.4841
한거	-11.4843
(100	-11.4844
▁제거해	-11.4847
der	-11.4848
걸요	-11.4856
gg	-11.486
▁가정해	-11.4861
==0)	-11.4864
ef	-11.4865
일때도	-11.4868
앞으로는	-11.4868
▁이클립스에서	-11.4869
▁남았	-11.4875
▁읽으면	-11.4881
되니까	-11.4882
▁오류입니다	-11.4883
▁방문해야	-11.4884
껏	-11.4888
▁벨만	-11.4889
▁헷갈릴	-11.4889
▁쓰셔도	-11.4889
▁풀어봐야겠네요	-11.489
▁걸러지	-11.4891
,0)	-11.4891
▁해싱	-11.4891
▁goto	-11.4891
▁자유	-11.4891
▁넣으시면	-11.4891
▁스위치	-11.4891
▁풀었더니	-11.4892
▁되겠지요	-11.4892
00000	-11.4893
▁없었는데	-11.4893
▁읽어보고	-11.4893
▁쓰려고	-11.4895
▁잘못되었는지	-11.4896
▁없군요	-11.4896
▁겹치지	-11.4898
▁약한	-11.4898
▁암호	-11.4898
이었던	-11.4898
ca	-11.4898
▁찾았는데	-11.4899
▁합친	-11.4901
▁spj	-11.4902
정보	-11.4902
▁크다고	-11.4904
▁팔	-11.4904
▁나오더라구요	-11.4905
▁돌아가서	-11.4906
)):	-11.4906
▁Ctrl	-11.4907
▁곱하고	-11.4908
▁참고하시길	-11.4908
조건에	-11.4909
▁메뉴	-11.4909
예시로	-11.4913
▁유니온	-11.4914
▁아앗	-11.4915
tr	-11.4917
▁greater	-11.4917
▁들어오고	-11.492
▁지적해주신	-11.4924
▁대해선	-11.4924
▁분야	-11.4925
정확한	-11.4926
▁*(	-11.4926
▁소수점이	-11.4926
런	-11.4927
▁까먹	-11.4927
▁그런건가요	-11.4928
▁봐주실	-11.4928
▁거네요	-11.4932
▁star	-11.4933
day	-11.4933
우선순위	-11.4934
▁주제	-11.4937
▁위험한	-11.4937
패	-11.4938
127	-11.4938
▁오지	-11.4938
Heap	-11.494
▁크기만	-11.494
▁넣어주	-11.494
▁대비	-11.4941
exit	-11.4942
▁배열입니다	-11.4942
▁deepcopy	-11.4943
▁제작	-11.4944
▁보여서	-11.4945
.14	-11.4948
▁와서	-11.4951
▁바꿔주셔야	-11.4956
▁거랑	-11.4957
해놓은	-11.4961
==========	-11.4961
▁한글자	-11.4962
▁귀	-11.4965
아래처럼	-11.497
▁cursor	-11.497
▁왔을	-11.497
▁그것만	-11.4972
▁줄여야	-11.4972
했으나	-11.4975
안의	-11.4976
▁채점번호	-11.4977
▁잡아주	-11.4977
▁많으니	-11.4977
▁원이	-11.498
▁만드	-11.4981
▁좌표는	-11.4981
▁group	-11.4986
▁식입니다	-11.4987
형태로	-11.4988
▁존재한다	-11.4988
yes	-11.4989
오타	-11.4989
보았는데	-11.4989
셨습니다	-11.4989
페이지	-11.499
▁주어	-11.4991
▁잡아도	-11.4993
▁해결하면	-11.4996
▁색이	-11.5002
▁가기	-11.5005
돌려	-11.5006
예상	-11.5008
▁800	-11.5009
-1])	-11.5009
▁몇번째	-11.501
▁11,	-11.501
▁(*	-11.5014
눈	-11.5018
체크	-11.5025
125	-11.5028
▁안나오	-11.5031
▁20,	-11.5033
▁느끼	-11.5036
▁실수한	-11.5039
▁계신데	-11.5039
▁작성자분	-11.504
▁포스	-11.5041
▁내로	-11.5042
▁나는것	-11.5044
▁시간초과로	-11.5044
▁해주니	-11.5044
▁손해	-11.5046
▁범위로	-11.5047
▁목적지에	-11.5049
▁싶다	-11.5049
▁성적	-11.5051
▁신경써	-11.5052
~6	-11.5053
▁방문이	-11.5053
▁수입니다	-11.5055
▁상상	-11.5056
인데도	-11.5062
▁입력해도	-11.5062
~19	-11.5064
▁맛	-11.5066
장을	-11.5067
▁지식을	-11.5068
만큼만	-11.5069
▁뒤늦게	-11.5071
▁프로필	-11.5071
▁스왑	-11.5071
▁맥락	-11.5071
Corporation	-11.5071
▁치즈	-11.5071
▁쉬울	-11.5071
▁생겼습니다	-11.5072
▁넣어봐도	-11.5073
▁넣어주세요	-11.5074
▁같거나	-11.5074
▁않죠	-11.5075
isEmpty	-11.5076
▁segfault	-11.5077
▁안나올	-11.5077
▁[4,	-11.5078
▁적습니다	-11.5079
▁존재한다면	-11.508
해보니까	-11.5081
크기가	-11.5081
▁전까지는	-11.5081
▁질문드립니다	-11.5081
▁뺄셈	-11.5087
▁0,0	-11.5088
▁지원합니다	-11.5088
▁폭탄	-11.5089
▁작성했습니다	-11.509
▁생각으로	-11.5091
0.5	-11.5092
▁넘어가지	-11.5093
ff	-11.5096
▁(_	-11.5096
▁빨간	-11.5097
▁작고	-11.5098
▁끝나게	-11.5098
▁나올겁니다	-11.5098
▁중간값	-11.5098
▁정의하고	-11.5098
▁적어서	-11.5107
되었는지	-11.5108
yee	-11.5109
▁관리자	-11.5111
과정	-11.5113
▁자료형에	-11.5113
▁다행히	-11.5114
▁생기고	-11.5115
제대로	-11.5122
Time	-11.5123
▁넣었을때	-11.5123
작은	-11.5123
gr	-11.5123
Data	-11.5124
MOD	-11.5124
class	-11.5125
(4	-11.5126
ant	-11.5126
▁올해	-11.5127
▁받네요	-11.5127
using	-11.5127
▁코드라고	-11.5128
▁마음에	-11.5129
▁컴파일에러	-11.5131
시켜야	-11.5132
▁쯤	-11.5132
▁열에	-11.5135
점수	-11.5135
▁만족해야	-11.5137
▁-8	-11.5138
▁복잡	-11.514
▁되었기	-11.5141
▁왔	-11.5142
▁쌓아	-11.5143
▁예제로	-11.5148
써서	-11.5148
갖습니다	-11.5148
▁210	-11.5148
▁유의	-11.5151
▁종료된	-11.5164
▁권장	-11.517
▁여부에	-11.5176
▁넣을때	-11.5181
->3	-11.5181
▁짚어	-11.5183
▁됐는데	-11.5184
▁이후로는	-11.5185
▁사이에서	-11.5185
형식	-11.519
수있는	-11.5191
사이	-11.5191
▁할거	-11.5191
▁포인트	-11.5192
▁모호	-11.5192
▁****	-11.5197
[2],	-11.5198
주어야	-11.5198
▁행동을	-11.5199
▁않으셨	-11.5199
▁승	-11.52
▁구문이	-11.5207
개라고	-11.5208
tc	-11.5209
▁맞다	-11.521
tion	-11.5215
▁선택해야	-11.5216
우리	-11.5217
▁적고	-11.522
▁검색하면	-11.5221
▁1],	-11.5223
여기서는	-11.5225
시키면	-11.5225
▁지금과	-11.5227
▁발생하는데	-11.523
]>	-11.5231
▁가로로	-11.5231
받는	-11.5234
▁끝에서	-11.5236
쪽에	-11.5236
최	-11.524
▁바뀌었	-11.5243
▁프로그래밍을	-11.5244
▁이해는	-11.5245
한데	-11.525
▁하시	-11.5252
광	-11.5254
▁우연	-11.5255
▁세고	-11.5255
▁잊고	-11.5256
▁나타냅니다	-11.5256
▁오픈	-11.5256
▁노가다	-11.5256
▁채울	-11.5256
▁적으신	-11.5257
▁넘길	-11.5257
▁조작	-11.5258
▁있겠군요	-11.5258
▁있더라도	-11.5258
▁눈치	-11.5258
[10000]	-11.5258
▁알게되었습니다	-11.5259
▁키우	-11.5259
▁참조하세요	-11.5259
▁라서	-11.526
▁참고하겠습니다	-11.5261
붙	-11.5262
0000000	-11.5264
questions	-11.5264
............	-11.5265
▁까먹고	-11.5266
단순	-11.5267
번째에	-11.5269
까지입니다	-11.527
?????	-11.527
▁돌렸는데	-11.527
▁수정해보세요	-11.527
▁깨지지	-11.5272
▁이벤트	-11.5272
▁출력해보면	-11.5273
초기	-11.5274
nr	-11.5276
▁2~3	-11.5277
▁역시나	-11.5278
▁-9	-11.5279
▁추적	-11.5279
▁코드포스	-11.528
▁풀어보기	-11.528
▁음수인	-11.528
8%	-11.5281
▁너비	-11.5282
▁쌍이	-11.5282
989	-11.5283
게다가	-11.5284
▁차이점이	-11.5287
▁명쾌한	-11.5287
게임	-11.5288
▁소스로	-11.5289
son	-11.529
▁명확한	-11.5293
)(0,	-11.5294
▁command	-11.5295
▁사용한다면	-11.5296
하느냐	-11.5297
▁몰랐던	-11.5297
▁내지	-11.5299
▁puts	-11.5304
=100	-11.5306
pdf	-11.5307
뜨네요	-11.5307
었다	-11.5307
빠	-11.531
해버립니다	-11.5311
▁메모	-11.5312
Line	-11.5312
cache	-11.5313
▁경험이	-11.5313
insert	-11.5313
메소드	-11.5313
total	-11.5313
head	-11.5313
완료	-11.5314
edge	-11.5314
target	-11.5316
prev	-11.5316
하는건	-11.5318
입력값	-11.5319
)=	-11.5319
▁형님	-11.532
▁앞쪽	-11.5327
▁즐거운	-11.5327
▁힌트는	-11.5328
▁비재귀	-11.5331
▁담	-11.5334
▁차지	-11.5335
▁보셨	-11.5339
돌아	-11.5339
▁사분면	-11.534
▁옮기	-11.5343
▁지웠	-11.5343
이고요	-11.5343
▁호출해서	-11.5344
▁문자와	-11.5347
▁되나	-11.5348
스러운	-11.5348
다음부터는	-11.5348
▁행에	-11.535
태	-11.5358
▁무리가	-11.5358
▁stream	-11.5359
▁탐색하기	-11.5359
join	-11.5359
▁sit	-11.536
▁하라는	-11.5364
으로부터	-11.5366
▁탈출할	-11.5366
▁목록을	-11.5368
▁회	-11.5374
곳에서	-11.5381
▁테니	-11.5385
kks	-11.5387
▁정렬하기	-11.5389
▁뒤집어	-11.5389
왔습니다	-11.5395
++]	-11.5397
▁떨어져	-11.5397
▁공백이나	-11.5399
▁찾기가	-11.5399
▁하겠지만	-11.5403
▁비용은	-11.5406
=2,	-11.5408
▁해야하는데	-11.5412
▁풀게	-11.5413
이여야	-11.5414
력이	-11.5419
▁2,3	-11.542
[10001]	-11.5422
하신다면	-11.5425
한게	-11.5428
▁유효	-11.5429
데이터가	-11.5432
▁비트가	-11.5432
곳에	-11.5433
WB	-11.5437
년전	-11.5437
▁저장하게	-11.5442
▁가능하지	-11.5442
즈	-11.5444
▁포맷	-11.5444
닝	-11.5444
▁리터럴	-11.5445
▁염두	-11.5445
▁포켓몬	-11.5445
▁용액	-11.5445
WriteLine	-11.5445
▁음이	-11.5446
▁than	-11.5446
▁있더라구요	-11.5446
▁지름	-11.5446
▁헷갈렸네요	-11.5448
▁없겠네요	-11.5449
▁주말	-11.5449
▁가져와서	-11.5449
▁이해했어요	-11.5449
▁비워	-11.5451
▁모아서	-11.5451
valueOf	-11.5451
▁있음에도	-11.5451
▁이해되었습니다	-11.5452
▁구성하는	-11.5453
▁확인하세요	-11.5456
▁올라갈	-11.5456
▁필수	-11.5459
▁작성하시면	-11.5459
▁크루스칼	-11.5461
987	-11.5464
108	-11.5464
▁됐을	-11.5464
1+2	-11.5464
▁안해줘서	-11.5465
▁생각치	-11.5466
▁실버	-11.5466
▁흔히	-11.5468
▁넣어봤는데	-11.5468
▁들어와도	-11.5468
▁꽉	-11.5469
▁가방	-11.5473
▁요청이	-11.5473
▁pro	-11.5475
▁틀림	-11.5475
▁할당해	-11.5478
▁배수인	-11.5479
▁업	-11.5483
▁다르지만	-11.5484
▁최대값은	-11.5484
▁ᄆ	-11.5484
▁확보	-11.5485
▁체크하면	-11.5486
경우에	-11.5486
▁호출됩니다	-11.5487
▁white	-11.5489
카	-11.5492
▁문제이기	-11.5494
▁버리	-11.5499
▁풀때	-11.5499
▁scan	-11.55
db	-11.55
ge	-11.5501
▁[-	-11.5501
▁혼란을	-11.5502
nahwasa	-11.5503
▁핵심은	-11.5504
▁이런식	-11.5504
plus	-11.5505
참조	-11.5506
▁되는거죠	-11.5509
다시한번	-11.5509
▁늘리는	-11.551
▁진행되는	-11.551
▁되더군요	-11.5512
상에	-11.5513
▁것들은	-11.5513
▁애들	-11.5517
▁분께서	-11.5517
▁못하면	-11.5519
▁질문게시판	-11.5526
▁앞뒤	-11.5527
▁후진	-11.5529
▁않았다는	-11.5533
▁ᄏᄏᄏᄏᄏᄏᄏ	-11.5537
▁변경하면	-11.554
간선	-11.5545
정렬을	-11.5545
▁제출은	-11.5545
줄로	-11.5546
▁해당합니다	-11.5546
114	-11.555
▁하다	-11.5551
▁색칠	-11.5557
하였	-11.5558
▁높아	-11.5561
실제로는	-11.5565
▁구하게	-11.5573
▁복잡도에	-11.5575
▁아래에서	-11.5575
▁늘리	-11.5576
▁나아	-11.5577
입니당	-11.558
▁이니까	-11.5581
정확히는	-11.5581
▁틀	-11.5581
▁40000	-11.5583
▁인터넷에	-11.5585
om	-11.5585
▁변경해	-11.5585
코드에	-11.5591
+1):	-11.5592
▁시작점이	-11.5593
▁지나가	-11.5599
했었던	-11.5601
▁가능하기	-11.5606
▁느리	-11.5607
▁하자	-11.5614
셨어요	-11.5615
▁복사해	-11.5616
었으면	-11.5618
▁해줘서	-11.562
010	-11.5622
새	-11.5625
▁간주	-11.5627
▁요약	-11.5627
▁찾으려	-11.5629
▁온전	-11.563
▁su	-11.563
▁하든	-11.5632
▁보았을	-11.5632
▁구별	-11.5633
▁동작하게	-11.5634
셧	-11.5635
▁invalid	-11.5637
▁RTE	-11.5637
▁벗어났	-11.5637
▁배워가네요	-11.5637
▁근처	-11.5637
경우를	-11.5637
▁scope	-11.5637
▁세그트리	-11.5637
▁남겨봅니다	-11.5638
▁동치	-11.564
▁필요하다고	-11.5642
▁풀어봤는데	-11.5642
▁넣어주시면	-11.5643
▁저장해두고	-11.5643
9402	-11.5643
▁몸	-11.5643
▁의도치	-11.5644
▁불가	-11.5644
▁바가	-11.5645
▁풀어보는	-11.5645
▁출력만	-11.5646
▁거면	-11.5647
▁쪼	-11.5647
▁빠지게	-11.5647
▁두개가	-11.5648
▁넣어주고	-11.5648
▁달려	-11.5648
▁칸에서	-11.5648
▁닉네임	-11.5649
▁이웃	-11.5649
?2.	-11.5652
▁다른지	-11.5652
▁최소비용	-11.5653
▁있듯이	-11.5654
sb	-11.5654
지점	-11.5655
입력은	-11.5656
▁ASCII	-11.5656
▁파이프	-11.5656
▁1-2	-11.5656
▁반환됩니다	-11.5658
▁열어	-11.5659
▁누르	-11.5659
▁발견해서	-11.566
ist	-11.566
▁sorting	-11.5661
염	-11.5662
▁참조하게	-11.5663
▁높이는	-11.5664
▁pichulia	-11.5666
▁장점	-11.5668
▁엥	-11.5669
▁아닌거	-11.567
▁세로로	-11.5671
▁불편	-11.5671
▁뒤에서부터	-11.5673
하구요	-11.5673
받고	-11.5674
▁틀린건지	-11.5674
▁의존	-11.5676
▁안되요	-11.5676
▁signed	-11.5677
▁빼주면	-11.5678
▁올려서	-11.5683
▁시작하게	-11.5685
▁돌리면서	-11.5686
버퍼	-11.5686
▁ᄒᄒᄒᄒ	-11.5688
▁부분합	-11.5691
▁출력해보시면	-11.5694
ess	-11.5694
기본	-11.5694
▁공부한	-11.5694
▁관리하는	-11.5695
▁Code	-11.5695
▁링크에서	-11.5696
▁이상은	-11.5696
돼요	-11.5697
auto	-11.5701
iterator	-11.5701
▁할당되는	-11.5702
이것도	-11.5702
▁안들어가	-11.5702
▁Exception	-11.5703
1,2,3	-11.5703
▁만들어지는	-11.5703
▁줄입니다	-11.5704
웠	-11.5704
으시면	-11.5705
▁상에	-11.5706
▁갱신할	-11.5706
것만	-11.5707
당장	-11.5708
▁재미있	-11.5708
getchar	-11.5708
▁맵을	-11.5711
▁반복합니다	-11.5711
▁발생했을	-11.5712
칸으로	-11.5713
▁곡	-11.5713
▁vis	-11.5714
가령	-11.5716
▁생겼	-11.5723
▁저번에	-11.5724
▁않았고	-11.5725
님은	-11.5728
▁이것만	-11.5728
▁상대	-11.5729
ᅮᅲ	-11.5737
▁옛날	-11.5737
▁버리면	-11.5739
이상의	-11.5748
반례로	-11.575
▁"0	-11.575
보자면	-11.5753
▁막히	-11.5756
두고	-11.5757
▁결론적으로	-11.5758
▁리턴하지	-11.576
▁들어가는데	-11.5761
▁알려주	-11.5763
야합니다	-11.5765
997	-11.5766
▁하셨습니다	-11.5766
▁틀려	-11.5767
할당	-11.5769
▁조건인	-11.5769
▁LL	-11.5773
넣어	-11.5778
000000000000000	-11.5786
▁해서는	-11.5786
▁Map	-11.5792
초과	-11.5793
coding	-11.58
▁절약	-11.5804
▁따지	-11.5805
▁IO	-11.5807
▁변경하니	-11.5808
jun	-11.5811
▁속하는	-11.5812
었다고	-11.5813
▁쉬	-11.5813
하지않고	-11.5814
▁비교한	-11.5814
▁공부해야	-11.5816
▁시간으로	-11.5818
jo	-11.5819
Min	-11.582
하군요	-11.5822
보면서	-11.5824
▁였습니다	-11.5825
▁파일이	-11.5826
▁옆	-11.5826
▁제약	-11.583
글쓴이님의	-11.5831
▁읽어보면	-11.5832
▁관찰	-11.5832
▁침범	-11.5833
▁윤년	-11.5833
▁으악	-11.5833
▁찾았어요	-11.5834
(10,	-11.5834
▁찾아낼	-11.5834
▁생각하시나요	-11.5835
▁고민해보세요	-11.5838
해두고	-11.5838
)3	-11.5838
▁넘습니다	-11.5839
▁순회하면서	-11.5839
▁모순이	-11.5839
▁bottom	-11.584
▁0],	-11.5841
▁잘못됐네요	-11.5841
▁평범한	-11.5842
니깐요	-11.5842
[21]	-11.5843
▁누르고	-11.5843
▁자문자답합니다	-11.5846
▁고려하는	-11.5846
▁예상됩니다	-11.5847
▁COCI	-11.585
te	-11.585
▁붙인	-11.5852
555	-11.5853
▁맞으신	-11.5854
해보셨나요	-11.5855
)==	-11.5858
▁교차	-11.5859
▁indegree	-11.5859
▁시간내에	-11.586
드려	-11.586
▁반례에	-11.586
되지만	-11.5861
것들	-11.5861
▁리눅스	-11.5863
▁파티	-11.5867
▁어찌	-11.5868
▁뽑은	-11.5868
▁HashMap	-11.5868
▁어렵고	-11.587
▁금	-11.5871
▁루프마다	-11.5871
▁확인했는데	-11.5872
▁거짓이	-11.5873
▁안된다면	-11.5874
▁궁금하신	-11.5874
▁한번더	-11.5875
▁시작점과	-11.5876
▁나쁘지	-11.5876
▁객체에	-11.5877
▁최소값이	-11.5885
▁coin	-11.5891
▁알겠는데	-11.5893
▁초과입니다	-11.5893
▁출력되	-11.5893
permutation	-11.5894
바꿔	-11.5894
▁공백과	-11.5894
리고	-11.5898
▁달라진	-11.5899
해줘도	-11.59
▁내용으로	-11.5901
잘못	-11.5901
height	-11.5901
간단하게	-11.5901
Math	-11.5902
는데도	-11.5902
jw	-11.5903
▁찾아보	-11.5904
▁공유해	-11.5906
pi	-11.5907
▁파일에	-11.5907
fill	-11.5909
수정했습니다	-11.5909
phi	-11.5912
주시고	-11.5919
▁증명할	-11.5921
▁통일	-11.5922
▁될수	-11.5923
/11	-11.5925
▁아니었	-11.5926
▁.....	-11.5928
▁선언하여	-11.5931
▁!!!!	-11.5933
▁서로소	-11.5934
▁공이	-11.5936
열의	-11.5938
▁대회의	-11.594
▁나눠보	-11.5943
VE	-11.5943
▁무엇	-11.5946
123456789	-11.5948
▁변경할	-11.5949
치고	-11.5953
▁popleft	-11.5954
▁진행하게	-11.5954
있지	-11.5958
▁그리디로	-11.5959
▁안하면	-11.5961
.............	-11.5963
last	-11.5968
▁결	-11.597
▁번호로	-11.5971
___	-11.5972
▁빠지는	-11.5976
▁두는	-11.5977
▁시에는	-11.5983
iter	-11.5987
▁놓쳤	-11.5988
▁13,	-11.5988
▁나쁘	-11.5989
▁생각해볼	-11.5991
▁저런식	-11.5991
▁구조체를	-11.5995
▁나니	-11.5998
해주기	-11.6
DE	-11.6
▁재채점이	-11.6001
해볼게요	-11.6001
▁답변주셔서	-11.6006
▁누락	-11.6008
▁거였습니다	-11.6011
▁구매	-11.6011
▁접근해	-11.6012
내에	-11.6016
▁02	-11.6022
XX	-11.6024
겟	-11.6025
않고	-11.6025
▁지켜	-11.6026
▁힘들어	-11.6027
500000	-11.6027
▁Min	-11.6028
번째까지	-11.6029
ary	-11.6031
렀	-11.6032
ᅥ	-11.6033
pa	-11.6033
▁memcpy	-11.6033
▁고슴도치	-11.6033
▁유의미한	-11.6033
▁비행기	-11.6033
하였으나	-11.6033
▁사랑해요	-11.6033
▁오랜만에	-11.6034
▁없으나	-11.6034
문장	-11.6034
▁멀리	-11.6034
▁꼬리	-11.6035
▁않겠습니다	-11.6035
▁헷갈려서	-11.6035
▁있었으면	-11.6035
서로	-11.6036
▁설명하자면	-11.6037
▁통과하였습니다	-11.6039
▁올렸는데	-11.604
▁적었네요	-11.6041
▁가져야	-11.6043
반대로	-11.6043
▁눌러서	-11.6044
▁있었다면	-11.6044
▁덧붙이자면	-11.6045
▁확인해본	-11.6045
학년	-11.6046
데이터를	-11.6047
오류가	-11.6047
Score	-11.6048
▁-7	-11.6049
▁이해하시면	-11.6051
▁상관없는	-11.6051
▁나올까요	-11.6052
▁잇	-11.6052
▁죄송해요	-11.6054
0~	-11.6055
▁안돼	-11.6055
▁좋아서	-11.6055
▁적용하면	-11.6057
▁예시입니다	-11.6057
▁변경하여	-11.6057
▁선배님	-11.6059
▁해봤	-11.606
▁경기	-11.606
맞는	-11.6061
▁코테	-11.6062
000001	-11.6062
▁썼습니다	-11.6062
▁default	-11.6064
▁0,1	-11.6064
▁검사하면	-11.6065
▁시점이	-11.6067
▁counting	-11.6068
▁안되나요	-11.6071
▁참조해서	-11.6073
▁반복적	-11.6073
▁123456	-11.6074
>1	-11.6074
▁직원	-11.6076
4000	-11.6077
▁물이	-11.6077
▁일어날지	-11.6078
▁들어온다는	-11.6079
▁개수에	-11.6079
▁모르니	-11.6079
▁구간에	-11.6079
▁덕에	-11.608
랑은	-11.6084
▁갱신되는	-11.6087
▁없는건가요	-11.6088
▁3000	-11.6092
▁전에는	-11.6092
▁각도	-11.6095
버리기	-11.6095
▁최소의	-11.6095
/12	-11.6096
뭐가	-11.6097
▁그렇지만	-11.6099
▁Find	-11.6103
했었군요	-11.6104
close	-11.6104
냅니다	-11.6104
화이팅	-11.6106
Ans	-11.6106
=='	-11.6106
손	-11.6106
쉬운	-11.6106
주석	-11.6107
▁넘기는	-11.6108
값도	-11.6109
▁통과되지	-11.611
ment	-11.6111
▁but	-11.6112
해봅시다	-11.6112
버전	-11.6115
▁'='	-11.6116
▁change	-11.6118
▁했다가	-11.6119
sorted	-11.6119
큐에	-11.612
되었던	-11.612
▁보여요	-11.6122
("")	-11.6124
▁독립적	-11.6124
▁선수	-11.6126
▁답장	-11.6127
so	-11.6128
▁제출번호	-11.6128
▁작다는	-11.6129
▁했으면	-11.6132
▁추가했는데	-11.6132
▁도착지	-11.6136
▁한정	-11.6136
▁클릭	-11.6137
▁오래걸리는	-11.614
▁실행해보면	-11.6141
▁풀었을	-11.6141
-1)/2	-11.6147
▁(5,	-11.6157
▁쪽에서	-11.6158
▁반복문에	-11.6158
▁계시는	-11.616
▁등에	-11.6161
▁개행문자까지	-11.6162
▁필요없이	-11.6165
▁재귀함수로	-11.6167
처리를	-11.6168
▁부분까지	-11.6172
▁4]	-11.6176
풀어	-11.6176
!=0	-11.6177
▁나야	-11.6178
SS	-11.6178
▁만나	-11.6185
문자를	-11.619
▁되었던	-11.6191
상으로는	-11.6194
져야	-11.6194
생각을	-11.6197
봤네요	-11.6199
▁있는건	-11.6199
▁못풀	-11.62
▁예시에	-11.6201
나오는데	-11.6202
움	-11.6202
AA	-11.6205
▁옮기면	-11.6208
▁질문게시판에	-11.6209
▁적용되는	-11.6217
▁1->2	-11.6222
▁할수	-11.6223
▁넘어가기	-11.6224
▁증명을	-11.6227
▁cstring	-11.6229
십쇼	-11.6231
▁해봤습니다	-11.6231
google	-11.6237
zenith	-11.6237
▁띄워	-11.6237
sgchoi	-11.6237
▁FFT	-11.6237
▁쿠폰	-11.6237
wider	-11.6237
▁벌써	-11.6237
▁대괄호	-11.6238
▁다이아	-11.6238
▁그룹단어	-11.6238
▁정복	-11.6238
▁삼성	-11.6238
▁플래그	-11.6239
▁쓰셔서	-11.6239
▁바람직합니다	-11.6239
▁괜찮을까요	-11.6239
렸습니다	-11.6239
▁통과됐습니다	-11.624
▁나오겠네요	-11.6241
▁결정하는	-11.6241
▁않겠죠	-11.6241
▁말씀이신지	-11.6241
End	-11.6241
거였는데	-11.6242
해져서	-11.6242
▁API	-11.6242
하셨으면	-11.6243
▁이하입니다	-11.6244
▁시계	-11.6244
▁건설	-11.6245
▁개미	-11.6248
▁바깥쪽	-11.6248
▁조상	-11.6249
▁찾게	-11.6249
▁어려워서	-11.6249
▁근본적인	-11.625
▁다름없이	-11.625
▁'?'	-11.6251
▁존재한다고	-11.6253
▁구현하지	-11.6254
▁사람에게	-11.6254
▁맞출	-11.6254
0000000000	-11.6255
▁늘려서	-11.6257
appa	-11.6257
▁접근하려고	-11.6257
▁분할정복	-11.6258
","	-11.6258
▁직관적으로	-11.6258
분을	-11.626
문안에	-11.626
▁압도적	-11.6263
globals	-11.6264
▁이해하는데	-11.6264
▁소중한	-11.6266
▁뻔	-11.6267
<10	-11.6271
▁두번째로	-11.6272
▁방식대로	-11.6274
2*	-11.6274
▁주의해야	-11.6276
▁홀수인	-11.6278
▁코드인	-11.6282
났	-11.6283
▁집에	-11.6285
▁크다	-11.6286
▁돌리지	-11.6286
▁선택해서	-11.6287
▁1];	-11.629
▁또다른	-11.629
▁해결하신	-11.6292
▁level	-11.6294
▁짓을	-11.6295
▁있기때문에	-11.6295
kim	-11.6296
▁필요한지	-11.6298
▁정의한	-11.6299
▁eval	-11.63
▁middle	-11.6302
치는	-11.6302
▁할텐데	-11.6304
▁구현하고	-11.6304
부분만	-11.6306
▁하나밖에	-11.6306
호출	-11.6308
킹	-11.6308
▁디폴트	-11.6308
our	-11.6309
왕	-11.631
▁student	-11.6311
슬	-11.6311
휴	-11.6312
lambda	-11.6313
▁UCPC	-11.6313
▁문제라서	-11.6313
통한	-11.6314
▁도달하면	-11.6314
선생님	-11.6314
종류	-11.6314
아무리	-11.6315
▁언어별	-11.6316
static	-11.6317
▁하는건	-11.6318
▁밑줄	-11.6318
▁10^10	-11.6318
▁넣으려	-11.6319
,1.	-11.632
(1,1)	-11.6322
▁dd	-11.6328
▁같아지	-11.6328
212	-11.6328
하시나요	-11.6328
▁왼쪽부터	-11.6329
▁적어야	-11.6329
▁되어있	-11.6329
US	-11.6331
▁실수형으로	-11.6332
되었	-11.6332
TC	-11.6333
▁이쪽	-11.6333
무한	-11.6333
▁dev	-11.6334
▁쪽에	-11.6338
▁친구가	-11.6338
번역	-11.6338
▁이거는	-11.6339
▁ZZ	-11.6339
▁Tree	-11.6341
파이썬에서	-11.6342
[:]	-11.6344
▁포함이	-11.6348
주셔야	-11.6349
해보시고	-11.6349
▁뜻으로	-11.635
▁처리되지	-11.6355
▁찾아보면	-11.6355
▁말라는	-11.6356
▁풀었다	-11.6357
▁통과하기	-11.6359
0,0	-11.637
20000	-11.6371
▁짜고	-11.6371
▁절대값	-11.6372
▁머	-11.6377
▁띄우	-11.6379
버렸습니다	-11.6381
자신	-11.6383
▁사이트가	-11.6384
번이라도	-11.6387
▁하긴	-11.6389
▁등에서	-11.639
일떄	-11.6391
▁정수값	-11.6391
▁시작시간	-11.6394
▁돼야	-11.6397
대가	-11.6398
▁게시판에서	-11.6399
▁않는것	-11.6403
▁^^^	-11.6405
누	-11.6407
2))	-11.6408
app	-11.6409
▁전체에	-11.6409
▁직	-11.641
970	-11.6414
이것	-11.6415
▁못찾	-11.6416
▁속이	-11.6417
의미	-11.6418
▁선택하면	-11.6418
정도는	-11.6421
▁설정할	-11.6421
▁이상하다	-11.6421
▁알고리즘에서	-11.6423
▁설명하기	-11.6423
▁의도로	-11.6424
▁상당	-11.6425
▁반복이	-11.6426
▁정할	-11.6433
존	-11.6436
▁틀린것	-11.6436
▁여러분	-11.644
▁꺼낼	-11.6441
▁넣었	-11.6443
▁충돌이	-11.6445
뿌	-11.6445
▁띄어	-11.6445
▁대표	-11.6445
▁글쎄요	-11.6445
▁됩니당	-11.6445
▁마무리	-11.6445
▁대단하십니다	-11.6445
▁빨라질	-11.6445
▁좋아보입니다	-11.6446
lcr	-11.6446
▁서치	-11.6446
▁봐주세요	-11.6446
▁돌려봐도	-11.6446
▁시작지점	-11.6448
▁그랬습니다	-11.6448
슴다	-11.6448
▁받으려면	-11.6448
▁나는거	-11.6449
▁병합정렬	-11.6449
▁ut	-11.6449
▁푸셔야	-11.645
ton	-11.6451
▁안가네요	-11.6451
각각	-11.6452
하라	-11.6453
까지인데	-11.6453
▁만족하면	-11.6455
CCC	-11.6456
▁완벽히	-11.6456
▁수행하게	-11.6457
▁턴	-11.6458
▁통과했네요	-11.6459
▁많아야	-11.646
▁가독성이	-11.646
▁뿐더러	-11.6461
▁스캐너	-11.6461
▁추가될	-11.6462
▁빠졌	-11.6463
▁간단하	-11.6463
▁틀리는데	-11.6464
▁하셨는지	-11.6465
킬로	-11.6465
▁추가되었습니다	-11.6465
되었네요	-11.6465
▁선언하시면	-11.6466
7324	-11.6466
▁고려되지	-11.6466
수있습니다	-11.6467
▁쉽고	-11.6468
▁물어보는	-11.6468
▁쪽을	-11.6469
▁일으키는	-11.6472
▁네트워크	-11.6472
▁유일하	-11.6472
▁bufio	-11.6472
▁달아주	-11.6475
▁로그인	-11.6475
▁활용할	-11.6475
▁남기고	-11.6476
▁위치만	-11.6477
▁freopen	-11.6478
▁최	-11.6478
▁저장되고	-11.6479
buf	-11.6482
▁왼쪽에서	-11.6485
▁strcpy	-11.6486
▁Set	-11.6488
▁구현했습니다	-11.6488
차이가	-11.6491
▁증가합니다	-11.6491
▁만들수	-11.6495
BBBB	-11.6497
▁안돌아가	-11.6497
▁탐색하면	-11.6498
▁고정된	-11.65
▁맞아	-11.65
▁문제였는데	-11.65
있으니	-11.6501
▁version	-11.6503
▁대상으로	-11.6506
▁넘어간	-11.6506
▁채점할	-11.6508
▁넘겨주	-11.6508
▁상의	-11.6508
▁민	-11.6508
되거나	-11.6509
▁grade	-11.6511
▁추후	-11.6511
▁개선할	-11.6512
앙	-11.6514
▁걸리는데	-11.6514
▁풀이법	-11.6515
▁방문여부	-11.6515
▁단어로	-11.6516
▁보다가	-11.6517
edu	-11.6518
▁step	-11.652
hj	-11.652
이니까요	-11.6521
▁설정해야	-11.6524
▁떨어질	-11.6525
여담으로	-11.6525
심지어	-11.6526
매우	-11.6527
탈	-11.6527
▁이번에도	-11.6527
XXX	-11.6529
;;;;	-11.6531
▁지나간	-11.6531
정답이	-11.6532
하는건가요	-11.6533
그러네요	-11.6533
보시겠어요	-11.6535
공식	-11.6536
▁해보시는	-11.6537
ng	-11.6538
}{	-11.6541
▁문제해결	-11.6543
▁차이점을	-11.6544
stable	-11.6545
재귀함수	-11.6545
▁●	-11.6545
경우가	-11.6546
-3]	-11.6547
▁붙여야	-11.655
▁왔는데	-11.6553
아아	-11.6555
▁최소로	-11.6556
▁변수와	-11.6557
▁레	-11.6558
344	-11.656
GG	-11.6561
^4	-11.6563
+6	-11.6564
▁늘려야	-11.6565
han	-11.6566
▁채워져	-11.6566
▁입력해야	-11.6566
결과값	-11.6567
ne	-11.6567
▁"0"	-11.6567
▁구분할	-11.6571
것이고	-11.6571
low	-11.6572
▁BB	-11.6575
▁컴퓨터에서는	-11.6577
▁lambda	-11.658
▁꼴로	-11.658
▁접근하지	-11.658
[100	-11.6581
▁빠르기	-11.6584
▁나오는것	-11.6588
드렸습니다	-11.6589
지않나요	-11.6591
▁plus	-11.6591
err	-11.6592
▁않았나	-11.6596
▁하구요	-11.6598
해주셨으면	-11.6601
▁진짜로	-11.6603
[0,	-11.6604
To	-11.6604
())))	-11.6605
▁나올때	-11.6613
▁찾으시	-11.6616
2001	-11.6617
▁프로그래머	-11.6618
▁간선에	-11.6618
▁출	-11.6622
▁찾아봐야	-11.6622
▁판별할	-11.6622
▁개씩	-11.6625
개이상	-11.6629
Clang	-11.6632
~~~~	-11.6633
봉	-11.6634
▁2.5	-11.6634
▁200000	-11.6638
-%	-11.6644
▁도움말	-11.6644
▁잘라	-11.6644
▁원리는	-11.6645
▁몫이	-11.6651
▁존재하면	-11.6651
▁붙일	-11.6652
내용	-11.6653
▁연산자로	-11.6654
ᅲᅲᅲᅲᅲ	-11.6654
▁아는데	-11.6654
▁믿	-11.6655
▁지문에서	-11.6655
▁생산	-11.6655
▁16,	-11.6657
핑	-11.6657
송	-11.6658
▁똑바로	-11.6658
▁띄는	-11.6658
▁효율적입니다	-11.6658
ᄌ	-11.6658
▁elit	-11.6658
▁어려웠	-11.6658
▁amet	-11.6658
▁정석	-11.6658
▁국어	-11.6658
▁CCW	-11.6658
▁빨라집니다	-11.6658
▁보완	-11.6658
▁정상작동	-11.6658
▁공약수	-11.6658
▁동생	-11.6659
▁취소	-11.6659
▁변경된	-11.6659
▁올려봅니다	-11.6659
▁나오길래	-11.6659
▁결합	-11.666
▁올리실	-11.666
▁허무하네요	-11.666
▁돌려보시면	-11.6661
▁따로따로	-11.6662
▁남아있습니다	-11.6662
▁개별적으로	-11.6662
▁연산량	-11.6662
▁시도해보세요	-11.6663
▁조건들	-11.6663
▁말씀하시는건가요	-11.6663
▁토	-11.6664
번째부터	-11.6665
▁method	-11.6665
▁마이너스	-11.6665
▁안전합니다	-11.6666
▁종	-11.6666
▁문제인거	-11.6666
▁700	-11.6666
IO	-11.6667
▁저만	-11.6667
▁피하기	-11.6668
준다고	-11.6668
▁sequence	-11.6668
▁발전	-11.6668
▁설명하고	-11.6669
▁newline	-11.667
▁풀어보시면	-11.6671
▁개수로	-11.6672
▁맞추는	-11.6672
DD	-11.6673
▁적절하지	-11.6673
▁입장	-11.6674
▁SPFA	-11.6674
112	-11.6675
▁없겠지만	-11.6676
▁PriorityQueue	-11.6677
제일	-11.6677
▁끝나기	-11.6679
▁넣으신	-11.668
▁만들었는데	-11.6681
▁사용하려면	-11.6682
▁난다면	-11.6683
ddd	-11.6687
▁집어	-11.6687
=7	-11.6689
이신	-11.669
▁안나네요	-11.6692
환경	-11.6692
▁알아내는	-11.6693
함에	-11.6693
ST	-11.6693
▁[0],	-11.6694
≤	-11.6694
▁배열에는	-11.6694
▁정렬해야	-11.6696
▁역할이	-11.6696
▁(2,1)	-11.6698
▁문자열과	-11.6699
▁되더라고요	-11.67
▁NameError	-11.67
▁뒷부분	-11.67
▁할당되지	-11.6702
점으로	-11.6704
▁해결하시면	-11.6705
▁제출시	-11.6705
▁설령	-11.6706
▁select	-11.6708
▁되어도	-11.6709
▁어려우	-11.6711
▁되었고	-11.6711
▁났을	-11.6712
▁쪼개	-11.6713
▁판단하기	-11.6713
해버리는	-11.6714
▁헷갈리	-11.6714
▁흰색	-11.6714
▁problem	-11.6715
▁mx	-11.6716
▁오류로	-11.6716
▁진행합니다	-11.6717
ean	-11.6717
▁제거할	-11.6719
▁작다	-11.6721
하니까요	-11.6722
그렇지	-11.6722
▁되겠지만	-11.6722
▁주소로	-11.6724
matrix	-11.6726
▁첨부한	-11.6727
▁점검	-11.673
▁본다면	-11.6731
이였네요	-11.6731
▁잘되네요	-11.6732
있다는	-11.6734
▁rand	-11.6737
▁똑같은데	-11.6737
▁진행하고	-11.6738
▁상황은	-11.6739
nullptr	-11.6741
▁자신보다	-11.6742
correct	-11.6743
rit	-11.6743
결론적으로	-11.6744
띄어쓰기	-11.6744
평균	-11.6744
비슷한	-11.6744
관계	-11.6744
weight	-11.6744
주어지는	-11.6745
▁크다는	-11.6746
pill	-11.6746
기로	-11.6747
▁찾아보는	-11.6748
func	-11.675
아예	-11.6751
▁이외에도	-11.6751
▁간결하	-11.6752
side	-11.6754
▁줄이면	-11.6754
▁-128	-11.6757
▁cal	-11.6757
▁143	-11.6759
▁위함	-11.676
▁안보이	-11.6762
nc	-11.6762
▁자르	-11.6766
▁빼먹	-11.6767
zero	-11.6767
▁홀수일	-11.6767
▁안쓰	-11.6769
▁역추적	-11.6771
▁1~2	-11.6773
---	-11.6774
▁변하는	-11.6781
단위로	-11.6782
~30	-11.6782
전역	-11.6786
▁참조하고	-11.6799
▁편리	-11.6799
형이기	-11.6803
있던	-11.6807
는지를	-11.6807
료	-11.6808
▁답인	-11.681
▁*****	-11.6813
▁상한	-11.6816
▁되었는지	-11.6816
100100	-11.6818
▁chogahui	-11.6819
년도	-11.6821
▁정수만	-11.6821
▁방법인	-11.6822
▁NP	-11.6823
~16	-11.6826
였나	-11.6826
▁실행해서	-11.6829
▁중심	-11.6834
게끔	-11.6836
▁돌려보	-11.6836
▁만큼만	-11.6836
1024	-11.6843
되었다면	-11.6843
이유	-11.6845
▁poll	-11.6846
출력이	-11.6847
칸짜리	-11.6848
▁다익스트라로	-11.6853
▁자바에서	-11.6854
▁구현된	-11.6854
이전에	-11.6855
출력값	-11.6856
2^	-11.6856
8)	-11.6859
검	-11.6862
보입니다	-11.6866
있기	-11.6867
▁흰	-11.6867
▁써야하는	-11.6867
환	-11.687
개보다	-11.687
▁ma	-11.6871
구문	-11.6871
▁돌렸	-11.6872
'\	-11.6872
Length	-11.6874
숙	-11.6874
련	-11.6875
궁	-11.6875
▁닫	-11.6875
액	-11.6875
바꿉니다	-11.6875
핫	-11.6876
▁화이트스페이스	-11.6876
▁줄어드는	-11.6876
Last	-11.6876
82114	-11.6876
▁궁금했던	-11.6877
▁고유	-11.6877
▁커집니다	-11.6877
▁심각	-11.6877
▁경로에	-11.6878
▁본래	-11.6878
▁달성	-11.6879
aabb	-11.6879
▁예선	-11.688
봤지만	-11.688
▁없도록	-11.6881
▁깨져	-11.6881
▁돌때마다	-11.6881
▁투자	-11.6881
▁바뀌면	-11.6881
▁사용하셨는데	-11.6882
▁늘어나는	-11.6883
▁선언하지	-11.6883
▁점들을	-11.6884
▁색상	-11.6884
▁들어왔을때	-11.6885
▁11111	-11.6886
▁대상이	-11.6886
▁찾고자	-11.6886
▁만들었	-11.6886
hd	-11.6887
▁많아지	-11.6888
▁해결됨으로	-11.6888
▁140	-11.6888
봤더니	-11.6888
run	-11.6888
▁수정해주세요	-11.689
▁생각해보니까	-11.689
▁틀렸다면	-11.689
▁지원자	-11.6891
▁주장	-11.6891
▁걍	-11.6892
▁부등식	-11.6892
▁100100	-11.6892
▁공부하시는	-11.6895
[1:]	-11.69
▁유추할	-11.69
▁memory	-11.6901
▁214	-11.6902
▁돌아가고	-11.6902
주었더니	-11.6903
▁알겠지만	-11.6904
▁부탁드려요	-11.6905
걸리	-11.6906
▁언급하신	-11.6907
▁깜빡하고	-11.6909
▁복받으세요	-11.6909
▁요구한	-11.6909
▁생각해보고	-11.691
▁답변에	-11.6913
▁틀린건가요	-11.6915
▁fixed	-11.6915
...!!	-11.6917
▁최적이	-11.6918
▁알기로는	-11.6918
▁cmd	-11.6921
번째줄이	-11.6921
▁119	-11.6921
102	-11.6921
▁모를	-11.6925
-100	-11.6925
St	-11.6926
▁시계방향	-11.6927
▁알겠네요	-11.6928
▁시간초과입니다	-11.6929
▁복사하고	-11.6932
abac	-11.6937
줌	-11.6939
방금	-11.6939
하나의	-11.6939
봐요	-11.694
▁놓으면	-11.694
해보시는게	-11.6941
엇	-11.6941
▁alp	-11.6942
------------	-11.6943
▁000000000	-11.6948
▁room	-11.6948
▁통과하는데	-11.6948
▁학점	-11.6953
(1);	-11.6954
+8	-11.6956
▁rev	-11.6961
▁사용량이	-11.6963
▁생각하면서	-11.6963
contest	-11.6965
file	-11.6965
선택	-11.6966
클래스	-11.6966
일반적인	-11.6967
Out	-11.6969
fgets	-11.6971
▁체크해서	-11.6972
지라	-11.6972
되겠죠	-11.6975
▁안들어	-11.6978
▁글로	-11.6982
bo	-11.6982
▁없긴	-11.6985
▁면에서	-11.6988
▁곱해	-11.6989
아닌	-11.6991
▁없던	-11.6991
={	-11.6991
▁there	-11.6992
af	-11.6994
소수점	-11.6995
▁따라서는	-11.6996
▁해결했	-11.6996
▁싶을	-11.6997
1,1	-11.6998
더라	-11.6999
▁더해주면	-11.6999
시에는	-11.7
하시네요	-11.7
▁휴	-11.7003
▁시작하지	-11.7004
▁작성했는데	-11.7006
▁찾았을	-11.7009
▁이루어지는	-11.7009
▁결과값은	-11.7013
▁종료될	-11.7014
tt	-11.7018
▁반올림이	-11.7022
두분	-11.7023
ax	-11.7024
▁살펴보니	-11.7025
▁[1	-11.7025
자식	-11.7025
124	-11.7027
욤	-11.7027
기능	-11.7031
Of	-11.7032
▁원문에	-11.7035
▁했으나	-11.7036
▁구분해	-11.7037
');	-11.7039
▁Error	-11.7039
▁변환이	-11.7041
때문이	-11.7043
0,000	-11.7046
▁해결법	-11.7048
(2*	-11.7049
▁삭제할	-11.7051
[2])	-11.7053
▁좋으	-11.706
-->	-11.7062
▁써주신	-11.7062
▁패턴이	-11.7066
해봐야겠네요	-11.7068
해야할지	-11.7068
▁반복할	-11.7072
▁[3]	-11.7073
▁싸	-11.7074
▁사용될	-11.7075
▁진행한	-11.7075
▁일직선	-11.708
▁파악할	-11.7082
▁재귀호출이	-11.7082
+1);	-11.7083
▁배수일	-11.7087
▁누	-11.7087
게시판	-11.7088
윗	-11.709
ord	-11.7091
▁고정되어	-11.7092
혔	-11.7097
▁Online	-11.7098
▁최장	-11.7098
▁스캔	-11.7098
▁워낙	-11.7098
▁줘서	-11.7098
▁할게요	-11.7098
엿	-11.7098
language	-11.7098
인걸	-11.7099
▁보석	-11.7099
..............**	-11.7099
▁115	-11.7099
▁고쳐보겠습니다	-11.7099
▁소비	-11.71
▁추정됩니다	-11.71
▁#1	-11.7101
▁귀찮아서	-11.7101
▁틀렸어요	-11.7101
해야하는	-11.7101
▁바뀌었습니다	-11.7102
▁필요없습니다	-11.7102
▁풀렸네요	-11.7102
등을	-11.7102
▁저장해놓고	-11.7102
▁가득	-11.7103
▁받으려고	-11.7103
▁10^12	-11.7104
▁도달한	-11.7105
▁무작위	-11.7105
▁오르	-11.7105
거같아서	-11.7107
▁일으킬	-11.7108
▁찾으려고	-11.711
▁which	-11.7111
▁치삼지수	-11.7111
▁마법	-11.7113
▁공부하시면	-11.7113
▁플레이어	-11.7114
대로면	-11.7114
▁추가해주면	-11.7117
▁구할때	-11.7119
▁추가해보세요	-11.712
▁was	-11.712
▁expression	-11.712
▁적용한	-11.7122
하심	-11.7122
반례가	-11.7122
▁40.000%	-11.7123
▁characters	-11.7123
▁놀랍게도	-11.7123
▁rewind	-11.7123
RRRRRRRRRRRRRRRR	-11.7124
▁ᄏᄏᄏᄏᄏᄏᄏᄏᄏ	-11.7125
▁고르면	-11.7126
▁나왔네요	-11.7126
▁1-1	-11.7127
이요	-11.7128
▁선택된	-11.7128
▁HashSet	-11.7129
▁의미한다	-11.713
주실	-11.7131
>0)	-11.7132
▁quam	-11.7133
공개된	-11.7135
▁네네	-11.7136
▁bupjae	-11.7138
▁here	-11.7141
▁뜨는지	-11.7142
▁스페이스바	-11.7144
▁-6	-11.7145
▁stoi	-11.7146
▁구분자	-11.7147
▁입력되었을	-11.7147
(5	-11.715
하자마자	-11.7151
▁주변에	-11.7153
▁요인	-11.7154
▁작성해주신	-11.7156
▁sed	-11.7156
대신에	-11.7157
▁않았다	-11.7157
▁minute	-11.7157
location	-11.7157
▁수식으로	-11.7159
▁넹	-11.7159
▁처리는	-11.716
▁(0,1)	-11.7161
▁1}	-11.7161
▁떨어지	-11.7162
▁small	-11.7164
▁모르는데	-11.7165
256	-11.7167
▁종료해야	-11.7167
ide	-11.7171
▁오차는	-11.7171
▁box	-11.7172
개에	-11.7173
▁아니지	-11.7174
▁가져갈	-11.7175
▁갱신될	-11.7176
쉽	-11.7176
▁입문	-11.7177
▁문제였	-11.7177
▁자르는	-11.7177
▁얘	-11.7178
1101	-11.718
작성	-11.7181
곱	-11.7181
▁실행하지	-11.7181
▁평	-11.7182
▁설정해서	-11.7185
▁개일	-11.7185
ae	-11.7186
004	-11.7187
처	-11.7187
▁공부해서	-11.7188
▁느낌으로	-11.719
▁곳으로	-11.7191
team	-11.7193
▁들어있지	-11.7195
친구	-11.7196
▁조건입니다	-11.7196
개라면	-11.7199
홀수	-11.7201
▁정렬되지	-11.7201
싶네요	-11.7202
▁최빈값이	-11.7204
코드로	-11.7206
▁주소값이	-11.7206
▁과제	-11.7207
▁1~9	-11.7208
11111	-11.7215
▁open	-11.7215
▁수업	-11.7219
▁#2	-11.7221
▁생성한	-11.7223
▁117	-11.7226
틀리	-11.7233
견	-11.7236
▁나아가	-11.7236
▁출력형식이	-11.7237
▁였네요	-11.7243
▁짓는	-11.7245
▁미스	-11.7246
곳이	-11.7247
▁헷갈리네요	-11.7248
▁내용과	-11.7249
▁우주	-11.7252
▁책이	-11.7256
반면에	-11.7259
개와	-11.7259
▁않는지	-11.7265
▁인해서	-11.7266
▁양해	-11.7266
▁최댓값인	-11.7269
▁천	-11.7269
글자씩	-11.727
~100	-11.7274
▁윗분이	-11.7274
▁pa	-11.7275
개이므로	-11.7275
일차	-11.7276
00000001	-11.7279
▁멍청	-11.7279
▁집어넣는	-11.7279
▁여기를	-11.7283
1/2	-11.7283
▁변경하고	-11.7292
▁00000	-11.7295
ake	-11.7295
▁해법	-11.7295
▁탈출하는	-11.7296
▁상단	-11.7297
ull	-11.7299
▁라인은	-11.7299
▁푸	-11.7301
있는지	-11.7305
하자	-11.7305
▁부족하	-11.7305
▁그림으로	-11.7305
0808	-11.7308
aw	-11.7309
▁명시해	-11.7309
▁빌	-11.731
bba	-11.7316
▁연산만	-11.7316
▁접근하려	-11.7317
▁감사하	-11.7317
▁무의미	-11.7318
▁에러라고	-11.7319
178	-11.7321
충	-11.7323
▁빠져나가	-11.7324
▁안한	-11.7325
▁sw	-11.7325
▁넓은	-11.7325
껄	-11.7325
★	-11.7325
▁should	-11.7325
slack	-11.7325
▁말씀이시죠	-11.7325
algospot	-11.7325
▁0<=	-11.7325
Reader	-11.7325
▁늘릴	-11.7326
▁연동	-11.7326
▁있어보입니다	-11.7326
▁이진트리	-11.7326
▁참석	-11.7327
▁기타	-11.7327
racle	-11.7327
▁오직	-11.7328
entry	-11.7328
▁지급	-11.733
▁라이브러리에	-11.733
▁있었는지	-11.7331
인듯	-11.7331
▁빠르다고	-11.7331
▁stairs	-11.7332
▁충분할	-11.7333
▁틀렸었는데	-11.7333
'0'	-11.7333
▁기다리고	-11.7334
▁착각하고	-11.7335
usr	-11.7336
▁immutable	-11.7336
▁보진	-11.7336
▁구하려면	-11.7338
▁사건	-11.734
▁주의하셔야	-11.7341
했거든요	-11.7342
/16	-11.7342
sy	-11.7342
▁달라	-11.7343
▁있을텐데	-11.7343
▁걸쳐서	-11.7343
에대해	-11.7344
▁믿고	-11.7345
▁variable	-11.7345
해보세용	-11.7345
▁건물이	-11.7346
▁막대기	-11.7346
▁골	-11.7347
WW	-11.7348
이분	-11.7349
▁+2	-11.7349
▁카드가	-11.7349
▁쓴다고	-11.735
▁남의	-11.7351
▁알고있는데	-11.7352
▁세야	-11.7353
개니까	-11.7353
~12	-11.7353
저의	-11.7353
▁주어져	-11.7357
▁잘못된건지	-11.7357
▁하루종일	-11.7358
[50]	-11.7358
줬더니	-11.7358
숫자가	-11.7358
▁lis	-11.736
▁차수	-11.736
sp	-11.7361
지금까지	-11.7362
▁반지름	-11.7363
하다보면	-11.7363
upper	-11.7363
▁생성해서	-11.7363
▁문자만	-11.7364
시간초과가	-11.7364
744	-11.7364
▁최소인	-11.7364
▁\\	-11.7364
▁설명하면	-11.7368
▁만들때	-11.7369
▁시작하여	-11.737
▁>>>	-11.7372
Com	-11.7372
▁뜨게	-11.7377
▁sp	-11.7379
sin	-11.7379
버거	-11.738
▁좌우	-11.7382
stdlib	-11.7385
해야겠어요	-11.739
▁재사용	-11.7392
▁이클립스	-11.7392
▁정의할	-11.7395
▁추론	-11.7398
▁팀이	-11.7398
;//	-11.7399
▁되있	-11.74
▁떠올리	-11.7401
▁중복되어	-11.7401
으실	-11.7401
▁중요	-11.7402
▁multi	-11.7406
하겠다는	-11.7407
▁local	-11.7409
▁구분하지	-11.7409
▁원점	-11.741
▁987654321	-11.741
cf	-11.741
▁소스코드는	-11.7411
했음	-11.7411
▁입력됩니다	-11.7412
방법을	-11.7412
보이는	-11.7412
청	-11.7416
너	-11.7416
323	-11.7418
열에	-11.7418
▁resize	-11.742
▁나타내기	-11.7421
이하라는	-11.7422
보시는	-11.7422
예외	-11.7423
bin	-11.7423
▁카드의	-11.7424
좌	-11.7425
floor	-11.7425
Undefined	-11.7426
아주	-11.7426
알파벳	-11.7426
오히려	-11.7426
그렇네요	-11.7426
Sort	-11.7426
▁입력입니다	-11.7427
아무것도	-11.7427
뜻	-11.7427
▁loc	-11.7427
▁설명되어	-11.7428
이냐	-11.743
popleft	-11.743
▁조건만	-11.743
▁pl	-11.743
elif	-11.7433
▁2017	-11.7434
▁그러는데	-11.7436
자기	-11.7436
▁하라고	-11.7437
▁그부분	-11.7437
▁연산도	-11.7441
▁표현식	-11.7442
'\0'	-11.7442
▁과거	-11.7443
▁이야기는	-11.7445
▁mat	-11.7446
▁가격이	-11.7448
▁노트북	-11.7449
DA	-11.7449
chk	-11.7449
해지는	-11.7449
▁검수해	-11.7454
방법은	-11.7454
▁해결책	-11.7461
▁계산합니다	-11.7461
▁될때	-11.7462
▁아이디어는	-11.7462
▁치는	-11.7463
▁올라간	-11.7465
▁복잡해	-11.7466
322	-11.7466
▁차이점	-11.7466
파이썬의	-11.7472
▁제대로된	-11.7473
▁여담으로	-11.7475
까지도	-11.7476
gets	-11.7476
Val	-11.7478
해주실	-11.7479
▁없애는	-11.7479
▁107	-11.7483
새로	-11.7487
놓겠습니다	-11.7488
▁칠할	-11.7489
▁구조로	-11.7489
▁어마어마하	-11.7492
하겠지만	-11.7493
않습니다	-11.7495
003	-11.7496
으면서	-11.7498
▁이후에도	-11.7499
제거	-11.7499
▁커져	-11.75
▁지워주	-11.75
.13	-11.7501
▁활용한	-11.7503
▁소수들	-11.7505
▁doju	-11.7506
▁추가되어	-11.7506
있나요	-11.7507
▁간에	-11.7507
▁(=	-11.7508
▁-1-1	-11.7511
10001	-11.7512
수밖에	-11.7513
▁좌표들	-11.7516
▁lg	-11.7519
▁박	-11.7521
황	-11.7522
▁디	-11.7522
▁찾아볼	-11.7522
▁썻	-11.7524
▁any	-11.7525
▁주어졌	-11.7525
딩	-11.7526
하거든요	-11.7526
막상	-11.7527
▁증가하지	-11.7528
됐는데	-11.753
에러가	-11.7532
▁한줄로	-11.7532
해보았는데	-11.7535
아ᅡ	-11.7537
▁꼴이	-11.7538
저같은	-11.7543
▁효율	-11.7543
▁점으로	-11.7547
▁199	-11.7548
언어에서는	-11.7551
▁받으셨	-11.7553
족	-11.7555
율	-11.7557
그그그그그그그그그그그그그그그그	-11.7557
럭	-11.7557
▁게시물	-11.7558
▁겹칠	-11.7558
▁나쁜	-11.7558
▁읽게	-11.7558
▁읽으려	-11.7558
▁템플릿	-11.7558
▁아이템	-11.7558
▁합성수	-11.7558
▁BigInt	-11.7558
▁플	-11.7558
▁넘버	-11.7558
▁작으므로	-11.7558
▁비효율적으로	-11.7558
▁tr	-11.7559
▁빨라서	-11.7559
▁되시길	-11.7559
▁quis	-11.7559
▁상금	-11.7559
▁커질수록	-11.7559
해보았습니다	-11.756
▁승리	-11.756
▁읽어주세요	-11.756
▁적어주시면	-11.7561
▁넣어보는	-11.7561
▁내역	-11.7561
▁인출	-11.7561
▁풀려	-11.7561
▁버블정렬	-11.7562
▁수준이	-11.7562
86_64-	-11.7563
▁생각해봐야겠네요	-11.7563
::__	-11.7563
▁평면	-11.7563
▁defined	-11.7564
▁만들어놓고	-11.7565
▁2,147,483,647	-11.7569
▁릴리즈	-11.7569
▁제발	-11.7569
match	-11.7569
▁[5,	-11.7569
▁보장됩니다	-11.757
▁비교해보세요	-11.757
▁거는	-11.757
▁못했군요	-11.757
▁지정된	-11.7572
▁오우	-11.7573
,000	-11.7573
▁가벼운	-11.7575
BBBW	-11.7575
▁번외	-11.7576
▁그럼에	-11.7576
지역	-11.7578
▁나올지	-11.7578
개월	-11.7578
002	-11.7579
▁나오겠죠	-11.7579
▁도와주세요	-11.758
▁물고기를	-11.7582
▁동쪽	-11.7582
▁2019	-11.7584
▁확인해봤는데	-11.7584
▁코너	-11.7584
▁늘리면	-11.7586
▁co	-11.7588
드려서	-11.7589
▁해결방법	-11.7589
▁갈아	-11.7589
▁AA	-11.7589
IS	-11.759
▁펜윅	-11.759
▁안갑니다	-11.7596
조리	-11.7597
▁18,	-11.7597
▁Go	-11.7597
▁확인해보	-11.7598
▁Union	-11.7599
.(2)	-11.7601
▁testcase	-11.7601
꼴	-11.7602
▁비교하면서	-11.7602
▁드리	-11.7603
▁답변자님	-11.7604
분은	-11.7607
▁정렬로	-11.7608
▁명확	-11.7608
000000000	-11.7609
▁average	-11.761
▁해보지	-11.7611
던거	-11.7613
cl	-11.7614
▁(2,2)	-11.7616
▁등급	-11.7618
▁위상	-11.7619
게되면	-11.762
▁도시로	-11.7621
이기도	-11.7621
▁출력되야	-11.7622
▁전진	-11.7623
▁xor	-11.7623
▁소개	-11.7624
▁한해서	-11.7625
▁충분	-11.7625
▁키워	-11.7626
*9	-11.7627
▁대입하면	-11.7628
▁증가시켜	-11.7632
div	-11.7633
되었다는	-11.7633
223	-11.7637
1;	-11.7637
▁도달하지	-11.7637
▁해가	-11.7638
▁출력되어	-11.7638
비용	-11.764
(((	-11.764
ccc	-11.7642
▁Arr	-11.7644
▁113	-11.7645
됐네요	-11.7646
하하	-11.7646
▁싫	-11.7646
▁번역이	-11.7648
▁몰	-11.7648
▁불가능할	-11.7649
▁132	-11.7652
1*	-11.7654
▁정의는	-11.7655
▁한명	-11.7656
만이므로	-11.766
Green	-11.7661
딱	-11.7661
았습니다	-11.7662
Hello	-11.7662
stream	-11.7664
메모이제이션	-11.7664
백트래킹	-11.7664
구글링	-11.7664
헉	-11.7664
스페셜	-11.7664
undefined	-11.7664
SE	-11.7664
가중치	-11.7665
한것	-11.7666
▁하나일	-11.7666
▁위키	-11.767
▁해결되	-11.7671
912	-11.7672
▁2],	-11.7673
hash	-11.7675
▁담겨	-11.7677
▁하는데요	-11.7679
!!!!!!!!!	-11.768
이지요	-11.7682
저장	-11.7683
결론은	-11.7684
▁좌표로	-11.7686
▁매칭이	-11.7686
▁오게	-11.7689
▁여부와	-11.7689
▁좋았	-11.7691
나무	-11.7691
않아서	-11.7693
^4)	-11.7694
▁기능입니다	-11.7695
1110	-11.7697
▁목록에	-11.7698
cxx	-11.7699
▁변환한	-11.7701
adj	-11.7702
Int	-11.7703
▁공부해보시는	-11.7705
ine	-11.7706
▁슬	-11.7708
▁매일	-11.7713
OS	-11.7715
▁것이군요	-11.7716
백준에서	-11.7716
▁포함해	-11.772
▁나뉘어	-11.7722
▁공간은	-11.7723
해야하는데	-11.7723
▁join	-11.7723
▁이름만	-11.7729
▁풀어보지	-11.7732
▁2-3	-11.7738
▁것이며	-11.7739
▁없을때	-11.774
▁나요	-11.7745
▁예제에서는	-11.7745
지적	-11.7748
)}	-11.7748
▁볼게요	-11.7753
▁개별	-11.7755
▁로직에서	-11.7757
▁오류나	-11.7757
▁담지	-11.7757
▁이랑	-11.7759
혹	-11.776
▁갈수	-11.776
▁넣어준	-11.7761
\\	-11.7761
0\	-11.7763
lgN	-11.7765
tp	-11.7775
▁대응하	-11.7775
겠지	-11.7776
▁블록이	-11.7777
요소	-11.778
ted	-11.7783
▁호출하지	-11.7784
가보네요	-11.7785
릅니다	-11.7786
]*	-11.7787
소스코드	-11.7788
init	-11.7788
▁해답	-11.7789
205	-11.779
▁숙지	-11.7792
하였더니	-11.7792
꾸	-11.7792
▁점수는	-11.7792
내는	-11.7793
▁원칙	-11.7795
징	-11.7795
옹	-11.7795
chansol	-11.7796
▁augue	-11.7796
▁나타날	-11.7796
▁무방합니다	-11.7796
▁에디터	-11.7796
module	-11.7796
▁꼭짓점	-11.7796
읍니다	-11.7796
▁말아주세요	-11.7796
▁받으셔야	-11.7796
▁좌석	-11.7796
▁보존	-11.7796
▁only	-11.7796
▁최신	-11.7796
143	-11.7796
frac	-11.7797
▁찾음	-11.7797
▁터진	-11.7797
▁114	-11.7797
▁해결됬네요	-11.7798
▁잘라서	-11.7799
▁지정해주	-11.7799
▁잘못됐는지	-11.7799
▁첨부하겠습니다	-11.7799
▁무관하게	-11.78
▁NlogN	-11.78
▁붙습니다	-11.78
aba	-11.7801
▁방안	-11.7801
▁{0};	-11.7801
▁느리다고	-11.7802
▁구해놓고	-11.7802
▁잘못봤네요	-11.7803
스크	-11.7803
▁생각해봅니다	-11.7803
▁eget	-11.7805
▁조건문으로	-11.7805
변수가	-11.7805
메	-11.7807
▁만들어집니다	-11.7807
▁판단을	-11.7807
보시고	-11.7808
▁안전한	-11.7809
▁허용되지	-11.781
▁거라는	-11.781
▁돌려보고	-11.781
▁스도쿠	-11.781
▁바뀌어서	-11.781
주기	-11.7811
▁계산에	-11.7811
▁해결해보겠습니다	-11.7812
▁바꾸어주면	-11.7812
▁만나게	-11.7812
▁옵니다	-11.7813
+2)	-11.7813
▁샘플	-11.7813
▁스크립트	-11.7813
▁않는게	-11.7814
함이	-11.7814
[11]	-11.7814
▁문제에서도	-11.7816
▁이보다	-11.7817
▁확실하진	-11.7818
▁안되는건가요	-11.782
▁decimal	-11.782
▁트라이	-11.782
▁움직이	-11.782
ek	-11.7821
▁해석하면	-11.7822
거라서	-11.7822
▁프로그램에서	-11.7824
▁탐색하면서	-11.7824
▁만났을	-11.7825
xy	-11.7826
▁교점	-11.7826
되나	-11.7826
주지	-11.7827
▁앞서는	-11.7829
▁op	-11.783
rla	-11.7836
▁넘어가고	-11.7837
▁분류에	-11.7837
+2]	-11.7839
예제를	-11.784
▁모르겠다	-11.784
▁말처럼	-11.7842
▁주석으로	-11.7843
신거	-11.7843
▁실행하게	-11.7843
[51]	-11.7844
▁$\	-11.7844
▁회사	-11.7844
▁갔다가	-11.7844
▁의미없는	-11.7848
▁시간안에	-11.7848
▁숫자들이	-11.7851
▁지우니	-11.7852
▁분께	-11.7853
▁(1,3)	-11.7853
▁변환해서	-11.7853
▁되더라도	-11.7855
▁그쪽	-11.7855
▁효율이	-11.7858
▁쓸때	-11.7859
WWBB	-11.7859
하셨어요	-11.7859
▁붙어있는	-11.786
▁있다가	-11.7861
▁unique	-11.7862
봐야겠네요	-11.7862
▁종료하고	-11.7862
▁타임	-11.7863
▁써주	-11.7865
▁찾으	-11.7865
▁입력하세요	-11.7866
▁입력했을때	-11.7866
▁정리하면	-11.7866
abaa	-11.7867
▁들어있는지	-11.7868
rd	-11.7868
▁입력값에	-11.7871
▁없기에	-11.7873
▁해주실	-11.7873
측	-11.7875
▁출력되는지	-11.7878
▁black	-11.7878
▁테스트해보	-11.7879
▁나누게	-11.7879
▁마지막이	-11.788
▁밑으로	-11.788
▁발상	-11.7882
▁19,	-11.7883
▁수정하신	-11.7886
제한이	-11.7886
▁후위	-11.7887
▁형식은	-11.789
알고리즘을	-11.7894
▁고려하셔야	-11.7894
▁그동안	-11.7894
▁구간에서	-11.7896
▁mul	-11.7897
eed	-11.7898
하나만	-11.7898
▁해야하나요	-11.7898
원하는	-11.7903
셋	-11.7904
cubelover	-11.7905
icpc	-11.7905
seico	-11.7906
width	-11.7906
오버플로우	-11.7907
벌	-11.7907
철	-11.7907
group	-11.7907
변경	-11.7908
최댓값	-11.7908
2147483647	-11.7908
StringTokenizer	-11.7908
continue	-11.7908
대략	-11.7909
merge	-11.7909
기본적으로	-11.791
▁321	-11.7911
▁오래걸리	-11.7912
^8	-11.7912
▁옛날에	-11.7913
▁어쩌	-11.7914
▁시킨	-11.7916
▁버리는	-11.7916
런타임에러	-11.7919
번줄은	-11.7921
테고	-11.7922
Up	-11.7922
▁개로	-11.7924
▁해야할까요	-11.7925
해주시고	-11.7926
..........	-11.793
▁붙이지	-11.7933
345	-11.7935
배열에서	-11.7936
...........	-11.7936
▁출력으로	-11.7937
▁종료조건	-11.7941
//10	-11.7945
numbers	-11.7945
▁도착할	-11.7946
았어요	-11.7947
▁하셔야합니다	-11.7947
좌표를	-11.7948
]){	-11.795
▁잘못된것	-11.7951
▁지나면	-11.7951
▁빼기	-11.7952
나와야	-11.7954
▁이정도	-11.7954
0111	-11.7955
가격	-11.796
만인데	-11.7961
▁존재한다는	-11.7963
-1],	-11.7963
▁보자면	-11.7964
때도	-11.7967
▁오차로	-11.7972
하여야	-11.7974
무지	-11.7975
이부분	-11.7978
%60	-11.7979
▁모아	-11.7981
▁것이고요	-11.7982
▁같은거	-11.7982
▁채우	-11.7984
지우	-11.7988
▁하신다면	-11.799
▁시킬	-11.7997
▁본문의	-11.7997
▁깜빡	-11.7999
▁끝났	-11.8001
▁이상해	-11.8004
되야	-11.8006
▁명확하지	-11.8006
▁고쳐보	-11.8006
▁일도	-11.8011
▁병	-11.8012
▁반환하면	-11.8012
▁이용하고	-11.8015
고자	-11.8018
▁구현에서	-11.8018
ᅲᅲ감사합니다	-11.8021
▁간단해	-11.8022
▁중요하다	-11.8022
▁떠야	-11.8024
▁행복	-11.8033
▁질문에서	-11.8033
▁들어가는지	-11.8039
압	-11.8039
찰	-11.8039
seawon	-11.804
▁consectetur	-11.804
▁떨어집니다	-11.804
▁벌어질	-11.804
▁이렇습니다	-11.804
▁인덴트	-11.804
▁납득	-11.804
쨋든	-11.804
▁돌려보셨나요	-11.804
▁부탁드리겠습니다	-11.804
▁가져올	-11.804
▁가까이	-11.804
▁재할당	-11.804
▁자기자신	-11.804
▁않았으므로	-11.804
▁상담	-11.804
▁있거든요	-11.8041
▁있으시다면	-11.8041
▁found	-11.8041
▁필요해보입니다	-11.8041
▁알려져	-11.8041
▁아니어도	-11.8042
▁해결됬어요	-11.8042
▁크므로	-11.8042
▁간단합니다	-11.8044
▁남습니다	-11.8045
▁나왔는지	-11.8047
▁use	-11.8048
▁길어서	-11.8048
▁fibonacci	-11.8048
▁루트로	-11.8048
▁추정	-11.8048
▁공부하겠습니다	-11.8049
▁기다리	-11.8049
▁내니	-11.805
▁알아보기	-11.805
▁뜻이죠	-11.8051
▁스포일러	-11.8051
▁방문했는지	-11.8051
▁실행시	-11.8052
\0	-11.8052
▁작다고	-11.8054
▁10^8	-11.8054
하신거	-11.8054
▁다익스트라는	-11.8055
use	-11.8056
▁포함됩니다	-11.8057
▁공부하면서	-11.8057
▁던져	-11.8057
ᄏᄏᄏᄏᄏᄏ	-11.8058
▁아니군요	-11.8058
▁전형적	-11.806
▁Index	-11.8061
▁아시다시피	-11.8061
▁적용하는	-11.8061
ack	-11.8063
▁Programming	-11.8064
▁CPU	-11.8064
▁옮기고	-11.8065
pan	-11.8066
▁가장자리	-11.8066
▁선언되지	-11.8067
▁PPAP	-11.8068
렸네요	-11.8068
허	-11.807
넣고	-11.807
▁멍청하게	-11.8071
▁내려가	-11.8073
▁실행하기	-11.8074
해주시는	-11.8074
BA	-11.8074
▁자문	-11.8077
▁소요시간	-11.8077
▁무시하는	-11.8078
메가	-11.8078
▁al	-11.8078
▁이문제는	-11.8079
▁났는지	-11.8079
이였습니다	-11.8079
eo	-11.808
만입니다	-11.8081
432	-11.8081
▁제출했습니다	-11.8084
▁더블	-11.8088
▁자료구조에	-11.8089
▁팝	-11.8091
같아요	-11.8091
link	-11.8092
%100	-11.8094
▁채점기	-11.8098
▁ᅳᅳ	-11.8098
▁눈으로	-11.8099
▁접근법	-11.81
▁그나마	-11.81
연산이	-11.8101
▁더해지는	-11.8108
▁변할	-11.8109
▁해쉬	-11.8112
사이트	-11.8113
▁사용해야합니다	-11.8113
▁게임이	-11.8115
ance	-11.8115
▁안해	-11.8116
▁정렬하여	-11.8117
▁뜨면	-11.8118
▁비율	-11.8119
▁2020	-11.8123
려나요	-11.8125
알고	-11.8126
▁진행이	-11.8126
▁ᅡ	-11.8132
▁바꾼다	-11.8133
▁90%	-11.8134
▁홀	-11.8135
접	-11.8138
ave	-11.8138
▁북	-11.8139
▁예시들	-11.8144
안하고	-11.8144
▁충분하	-11.8147
버리고	-11.8148
▁이해했는데	-11.815
얼	-11.8151
이었는데	-11.8152
▁이유입니다	-11.8152
전자	-11.8154
잔	-11.8155
TT	-11.8156
▁평균이	-11.8156
MIN	-11.8157
글을	-11.8157
expected	-11.8157
테이블	-11.8157
넵	-11.8158
흠	-11.8158
except	-11.8158
열심히	-11.8158
갓	-11.8159
여전히	-11.8159
▁-0	-11.8161
654	-11.8162
▁겹치	-11.8163
▁큰지	-11.8163
거짓	-11.8163
abb	-11.8165
▁끝났을	-11.8165
▁이것때문	-11.8168
시지	-11.817
=9	-11.8172
개만큼	-11.8181
▁456	-11.8181
▁표현하기	-11.8182
▁깊어	-11.8185
대부분의	-11.8185
▁Contest	-11.8185
듯하네요	-11.8186
▁필요하기	-11.8187
▁바꾸면서	-11.8188
▁시작이	-11.819
▁봤더니	-11.8194
▁제한인	-11.8197
▁않으면서	-11.8197
▁보이고	-11.8201
▁17,	-11.8202
▁터미널	-11.8202
]=='	-11.8204
▁까	-11.8204
학교	-11.8207
▁유저들	-11.8211
▁느려	-11.8211
▁나갈	-11.8215
▁능력치	-11.8215
012	-11.8217
▁정답자	-11.8218
▁cd	-11.822
▁전체에서	-11.8223
▁경험상	-11.8224
▁에라토스테네스	-11.8225
▁컴파일러로	-11.8225
▁바꾸어도	-11.823
어디가	-11.8235
▁문제부터	-11.8237
▁덧붙	-11.8238
▁센	-11.8238
▁안하는	-11.8239
▁연산자입니다	-11.8247
10101	-11.825
▁1/3	-11.825
144	-11.8251
▁실행시키	-11.8252
▁되었다	-11.8254
▁첨	-11.8256
각각의	-11.8258
^^;	-11.8259
~15	-11.8266
▁놓았	-11.8267
▁체크한	-11.8268
▁모순	-11.8268
블	-11.8271
▁'0';	-11.8271
▁따져	-11.8273
/100	-11.8275
▁소멸	-11.8276
감사	-11.8277
▁이부분에서	-11.8279
▁sait	-11.8282
▁가량	-11.8282
ey	-11.8285
해주니까	-11.8285
▁정도입니다	-11.8285
▁맞힌	-11.8286
▁let	-11.8286
있어야	-11.8286
Write	-11.8286
▁qu	-11.8287
▁동의	-11.8289
Check	-11.8289
▁dijkstra	-11.829
▁디테일	-11.829
▁쉼표	-11.829
▁여쭤봅니다	-11.829
▁짰습니다	-11.829
▁타이핑	-11.829
해줬습니다	-11.829
▁오버로딩	-11.829
▁포도주	-11.829
▁cstdio	-11.829
Compare	-11.829
▁마리	-11.829
▁코포	-11.829
▁이루어집니다	-11.829
▁같네용	-11.8291
▁채운	-11.8291
▁원칙적으로	-11.8291
▁있더라고요	-11.8291
▁시작하자마자	-11.8292
▁십의	-11.8292
nah	-11.8292
langu	-11.8292
▁생각나는	-11.8292
▁국가	-11.8292
▁지웠습니다	-11.8293
cmp	-11.8293
▁그랬군요	-11.8293
▁참고하시기	-11.8294
하셨다는	-11.8294
▁이어지는	-11.8294
eat	-11.8295
▁바꾸거나	-11.8295
▁도구	-11.8296
▁않거나	-11.8296
▁알려진	-11.8296
=20	-11.8297
햇네요	-11.8299
▁보기엔	-11.8299
ite	-11.8299
▁평균적으로	-11.8299
▁안되시면	-11.83
▁관해서	-11.83
▁대략적인	-11.83
▁미만이	-11.8301
▁쓰셨는데	-11.8301
▁형성	-11.8301
▁parameter	-11.8301
▁추측됩니다	-11.8302
▁이해하실	-11.8302
▁수정했어요	-11.8303
▁집어넣고	-11.8303
▁:-)	-11.8304
▁이하이다	-11.8305
!!!!!!!!!!!!!	-11.8307
▁돌리시면	-11.8309
▁쓴다면	-11.8312
]=0	-11.8316
▁받아오	-11.8317
▁코틀린	-11.8319
하는것이	-11.832
▁맞는건가요	-11.8321
ze	-11.8321
▁저장하여	-11.8322
99998	-11.8325
▁이뤄지지	-11.8325
▁증가하게	-11.8327
ind	-11.8329
wo	-11.8329
▁수들이	-11.8329
▁풀려면	-11.8329
▁same	-11.833
▁(((	-11.8331
▁시간초과나	-11.8331
▁1110	-11.8333
▁fail	-11.8335
▁출력해야하는데	-11.8336
▁고려하고	-11.8336
▁조건상	-11.8337
▁15,	-11.8338
▁겸	-11.8339
▁적용해서	-11.8341
될지	-11.8342
▁Correct	-11.8342
▁애매한	-11.8345
▁기준은	-11.8346
▁발생해	-11.8347
▁소스에	-11.8349
▁있습니다만	-11.8351
▁컴	-11.8352
▁순열을	-11.8355
▁변수입니다	-11.8357
▁빼내	-11.836
▁선호	-11.836
▁사용한다고	-11.836
▁color	-11.8361
bits	-11.8362
▁감사합니다ᅲ	-11.8363
▁헷갈리신	-11.8364
▁알림	-11.8366
▁aba	-11.8366
라는걸	-11.8366
점에서	-11.8368
▁보단	-11.8368
▁Object	-11.8369
▁뜻이고	-11.8369
드려요	-11.838
▁답입니다	-11.838
▁못찾았	-11.8382
▁목적으로	-11.8383
▁안되어서	-11.8383
주셨습니다	-11.8384
▁빠지	-11.8386
0.000%	-11.8387
▁ICPC	-11.8387
▁ᄏᄏᄏᄏᄏᄏᄏᄏ	-11.8387
ock	-11.8388
▁404	-11.8388
였고	-11.8389
▁each	-11.839
해야겠습니다	-11.8391
▁3),	-11.8392
▁abcd	-11.8392
▁%1	-11.8392
BW	-11.8393
▁진행해야	-11.8395
버려	-11.8397
썼	-11.8397
▁공개로	-11.8399
▁값일	-11.8402
▁나와있지	-11.8404
읽어	-11.8405
▁그대로를	-11.8407
인건	-11.8408
밀	-11.8408
▁모호한	-11.8409
조합	-11.841
▁설명도	-11.841
보심이	-11.8412
fact	-11.8413
이상이	-11.8413
표준	-11.8413
▁제어	-11.8413
▁^^;	-11.8414
하더군요	-11.8414
프로그래밍	-11.8414
카드	-11.8416
fibo	-11.8416
pointer	-11.8416
구조	-11.8418
▁생각하셔야	-11.8422
card	-11.8422
▁훑어	-11.8423
답변해주셔서	-11.8424
▁만으로	-11.8425
▁출력되면	-11.8426
▁세그	-11.8427
1,2	-11.8428
▁실행되기	-11.843
▁제출하실	-11.8434
▁floor	-11.8434
]-	-11.8437
▁team	-11.8438
중간	-11.8439
▁모자라	-11.8441
..!!!	-11.8442
▁sa	-11.8442
VS	-11.8445
▁탈	-11.8446
▁중에는	-11.8449
▁분석해	-11.845
▁통과되	-11.8454
단위	-11.8455
▁따르	-11.8455
▁연관	-11.8458
open	-11.846
vec	-11.8468
기준으로	-11.847
▁될지는	-11.8472
▁[0	-11.8472
357	-11.8475
▁1~3	-11.8476
▁채점에	-11.8477
▁알고리즘도	-11.8478
####	-11.8479
▁하신거	-11.8481
.3)	-11.8481
=[]	-11.8481
▁출발지	-11.8484
▁지정하는	-11.8485
!!!!!!!!	-11.8486
▁안내	-11.8488
받아	-11.8489
^0	-11.849
변환	-11.8496
▁그부분을	-11.8498
▁말씀드리	-11.8501
으려고	-11.8504
rea	-11.8505
928	-11.8507
%%	-11.8509
▁물어봐	-11.8512
api	-11.8512
263	-11.8512
268	-11.8515
해봐야겠습니다	-11.8518
▁299	-11.8518
▁크기와	-11.8519
시하신	-11.8519
▁385	-11.8521
pre	-11.8522
▁part	-11.8523
▁155	-11.8523
워서	-11.8525
cstring	-11.8526
▁언	-11.8528
▁주어지	-11.853
814	-11.8531
▁트	-11.8531
how	-11.8534
UN	-11.8535
▁쌓여	-11.8536
▁트리에	-11.8537
▁걸린다	-11.8539
▁않았을까	-11.8541
싱	-11.8543
▁복사한	-11.8543
▁판단해야	-11.8544
▁실수하신	-11.8544
ada	-11.8544
▁변경이	-11.8545
▁갔을	-11.8545
닥	-11.8545
▁lectus	-11.8546
▁이터레이터	-11.8546
▁테이프	-11.8546
Zero	-11.8546
ReadLine	-11.8546
▁늘어납니다	-11.8546
▁플레	-11.8546
▁엄연히	-11.8546
▁빠집니다	-11.8546
▁주어지며	-11.8547
▁우변	-11.8547
▁가정해봅시다	-11.8547
▁적합하지	-11.8547
▁자른	-11.8547
▁말그대로	-11.8547
▁얻었습니다	-11.8547
▁원하신다면	-11.8548
▁나오던데	-11.8548
▁살펴보시면	-11.8548
▁알수있을까요	-11.8548
▁봐주시면	-11.8548
▁계신가요	-11.8548
▁푸니까	-11.8549
▁'4'	-11.855
▁접근한	-11.855
▁권	-11.855
▁되구요	-11.8551
▁맞추어	-11.8551
▁같진	-11.8552
▁맞겠네요	-11.8552
▁않겠지만	-11.8552
▁시험장	-11.8552
▁다시보니	-11.8552
▁앞선	-11.8554
인자	-11.8556
▁보군요	-11.8557
▁NOT	-11.8558
▁읽어봤는데	-11.8559
▁가져온	-11.856
▁'+'	-11.856
▁분들에게	-11.856
▁모바일	-11.8562
▁위함입니다	-11.8563
▁정해져있	-11.8563
▁잘못된걸까요	-11.8564
▁인식합니다	-11.8569
▁지워서	-11.857
▁할당받은	-11.8574
▁var	-11.8575
ver	-11.8575
▁속성	-11.8575
1,000,000	-11.8575
▁자리는	-11.8577
▁반례입니다입력	-11.8577
▁엄밀히	-11.8579
▁때문이라고	-11.8579
▁만족합니다	-11.858
▁해결하려면	-11.8581
그와	-11.8581
▁규칙성	-11.8581
▁일어나게	-11.8582
▁제출해보	-11.8582
▁chess	-11.8583
▁ᅮᅮᅮᅮ	-11.8584
▁앞자리	-11.8585
▁계	-11.8586
▁다각형	-11.8587
▁fib	-11.8587
▁판단합니다	-11.8588
▁난다고	-11.8588
▁차가	-11.8589
▁파이팅	-11.8589
▁오후	-11.8589
▁학생수	-11.859
▁LCS	-11.859
▁고치기	-11.859
▁가정했을	-11.859
▁이동하면	-11.8592
▁코드보다	-11.8594
▁구글링을	-11.8594
MN	-11.8595
▁될거같네요	-11.8595
▁움직인	-11.8596
▁쳐야	-11.8597
▁추가되면	-11.8597
▁길어지	-11.8598
▁익지	-11.8599
▁알고리즘과	-11.8599
▁minimum	-11.86
==1)	-11.86
▁말씀인지	-11.8602
▁풀어보니	-11.8602
▁확인하면서	-11.8602
]][	-11.8603
▁게시글에	-11.8603
▁ascii	-11.8607
▁그림이	-11.8607
mat	-11.8607
▁올려주시	-11.8608
▁가려	-11.8609
▁짝이	-11.8609
▁서버에	-11.8609
시는게	-11.8614
시기	-11.8614
▁웃	-11.8617
▁정도에	-11.8617
▁호출된	-11.8619
▁써야합니다	-11.8621
▁0.3	-11.8621
Tree	-11.8624
▁보기에는	-11.8628
tartlink	-11.8635
▁그런가	-11.8638
▁함수인	-11.8639
]+1	-11.864
▁정렬에	-11.8641
▁하다니	-11.8642
▁덧붙여	-11.8645
▁cut	-11.8646
▁가시면	-11.8647
▁25%	-11.8649
▁해버렸네요	-11.8652
(8	-11.8653
▁%=	-11.8657
▁끝난다	-11.8658
[1000000]	-11.8658
▁NM	-11.866
▁yukariko	-11.866
▁언어에서는	-11.866
▁옮겨야	-11.8661
▁파라미터로	-11.8663
▁탐색해서	-11.8664
▁난다는	-11.8665
▁그룹이	-11.8665
빼	-11.8668
않은	-11.867
▁행이	-11.867
저리	-11.8671
▁겠습니다	-11.8671
▁계산해보면	-11.8672
▁소스와	-11.8673
404	-11.8675
▁ᄒᄒ감사합니다	-11.868
bf	-11.868
memo	-11.8682
122	-11.8682
▁재미	-11.8683
▁괄호로	-11.8683
▁320	-11.8684
짝수	-11.8685
▁저격하	-11.8687
▁금지	-11.8688
회전	-11.8689
▁문단	-11.869
~14	-11.8691
없습니다	-11.8691
▁내놓	-11.8691
▁입력받았	-11.8696
▁이니	-11.8697
yk	-11.8703
977	-11.8708
▁내서	-11.871
IT	-11.8711
▁삭제가	-11.8713
▁출력시	-11.8714
▁트리에서	-11.8715
▁생성할	-11.8715
▁전부다	-11.8715
▁close	-11.8716
▁냅니다	-11.8716
▁넣으면서	-11.8716
하더라구요	-11.8717
CA	-11.8717
▁해줘도	-11.8719
/13	-11.8723
▁거겠죠	-11.8726
드리고	-11.8727
▁begin	-11.8729
nums	-11.8731
▁수행하지	-11.8731
▁달았	-11.8735
cy	-11.8735
▁하에	-11.8736
생각해보니	-11.8739
만들	-11.8742
,3)	-11.8744
:11	-11.8744
다들	-11.8745
문도	-11.8747
▁997	-11.8747
었기	-11.8749
▁돌리기	-11.8752
▁AAA	-11.8753
방식이	-11.8753
▁문은	-11.8756
결과가	-11.876
▁초기화되어	-11.8762
▁집이	-11.8762
▁축	-11.8764
▁보장되는	-11.8764
▁1])	-11.8765
▁그래프에	-11.8767
있을까요	-11.877
▁둘중	-11.8771
▁나옴	-11.8771
▁도는데	-11.8771
▁가능하게	-11.8772
감이	-11.8774
▁생각했을	-11.8774
▁흔	-11.8777
ᅮᅮᅮᅮ	-11.8778
▁질문할	-11.878
▁의미하는지	-11.878
▁저부분	-11.8781
이신가요	-11.8781
아래에	-11.8781
▁회의가	-11.8783
unc	-11.8783
~1	-11.8784
탄	-11.8785
▁총합이	-11.8786
▁314	-11.8791
예제에서	-11.8792
▁111111111	-11.8794
▁145	-11.8794
▁......	-11.8795
yu	-11.8797
▁형이	-11.8799
▁복사와	-11.88
{}	-11.8803
▁영어로	-11.8803
▁되는지는	-11.8808
▁항의	-11.8808
쿠	-11.8809
·	-11.8809
▁겪고	-11.8809
▁얻기	-11.8809
▁얻으실	-11.8809
▁풉니다	-11.8809
폐	-11.8809
Split	-11.8809
OXO	-11.8809
▁DAG	-11.8809
Distance	-11.8809
▁고장난	-11.8809
▁크롬	-11.8809
▁넣으셔야	-11.8809
▁열쇠	-11.8809
▁경우의수	-11.881
▁판매	-11.881
▁'10'	-11.881
6%	-11.881
▁있잖아요	-11.881
▁않으셨습니다	-11.8811
▁'5'	-11.8812
되겠네요	-11.8812
▁적절하게	-11.8812
▁전환	-11.8812
▁맞으나	-11.8813
▁시스템이	-11.8813
▁다음이	-11.8813
Re	-11.8813
▁약속	-11.8813
▁성장	-11.8814
▁짓기	-11.8814
▁써주세요	-11.8814
WWWW	-11.8814
외에	-11.8815
▁그럴까요	-11.8815
▁안전하게	-11.8816
▁걸렸습니다	-11.8816
▁자음	-11.8816
▁초점	-11.8816
▁못하겠네요	-11.8816
▁요리	-11.8817
▁정정합니다	-11.8817
▁찾아보니까	-11.8817
연산은	-11.8818
▁이래	-11.8819
[100];	-11.8819
▁뒤집으면	-11.8821
▁조금이라도	-11.8821
▁사용하셔도	-11.8821
▁활성화	-11.8821
▁무엇보다	-11.8821
▁받아들이	-11.8823
▁만나지	-11.8823
하셔야합니다	-11.8823
▁나오니까	-11.8824
[30]	-11.8824
회의	-11.8825
▁댓글에서	-11.8825
▁아니니까	-11.8825
▁좋은데	-11.8825
하였지만	-11.8826
▁초기화한	-11.8826
▁검색하시면	-11.8826
인건가요	-11.8828
▁것같습니다	-11.8828
▁ad	-11.8829
▁heapify	-11.8829
▁오일러	-11.8829
▁elements	-11.8831
312	-11.8831
▁출력결과	-11.8831
▁["	-11.8831
해보신	-11.8832
JS	-11.8833
▁소수입니다	-11.8833
▁잘못됐	-11.8833
▁그런걸까요	-11.8834
▁일어나고	-11.8834
▁안나옵니다	-11.8834
▁서울	-11.8835
▁초대	-11.8836
▁가르침	-11.8836
▁간혹	-11.8836
문자열이	-11.8837
▁예상출력	-11.8837
▁1000*1000	-11.8842
▁standard	-11.8843
▁판별하기	-11.8843
되는거	-11.8844
▁따지면	-11.8844
945	-11.8845
▁Call	-11.8845
969	-11.8846
▁문제인가	-11.8847
▁미치지	-11.8848
▁KOI	-11.8848
▁내림	-11.885
▁열이	-11.8851
▁글이지만	-11.8851
▁이럴수가	-11.8852
:00	-11.8853
▁프림	-11.8854
▁회수	-11.8854
▁행복한	-11.8855
▁예시처럼	-11.8857
겟네요	-11.886
▁식에	-11.8862
▁시도를	-11.8863
어디	-11.8864
쯤에서	-11.8865
▁의미하고	-11.8865
▁채워진	-11.8866
▁와인	-11.8867
▁개수만	-11.8868
504	-11.8868
야겠습니다	-11.887
▁함정	-11.8872
▁났네요	-11.8873
▁간단	-11.8874
▁final	-11.8876
▁받으면서	-11.8876
▁풀기에	-11.888
nk	-11.8884
▁될거같습니다	-11.8888
▁제출된	-11.8889
211	-11.889
▁세가지	-11.889
PC	-11.8891
▁나누지	-11.8891
▁코드들이	-11.8891
▁없는게	-11.8895
▁나타낸	-11.8897
▁얼마인지	-11.8897
▁종료합니다	-11.89
▁보니깐	-11.89
▁되길	-11.8905
전역변수	-11.8905
▁방문하면	-11.8906
OOOOOOOOOO	-11.8908
▁price	-11.8908
▁뿐인데	-11.8909
▁유량	-11.8912
▁크기입니다	-11.8913
▁배열도	-11.8914
▁정도까지	-11.8915
봐야겠습니다	-11.8916
▁리턴해야	-11.8916
▁입력버퍼	-11.8917
lm	-11.8918
▁선언해도	-11.8918
해야할까요	-11.8918
▁문제될	-11.8918
▁허용하는	-11.8921
▁나와있는데	-11.8923
BWWW	-11.8924
▁번째는	-11.8926
간에	-11.8928
▁260	-11.8929
▁구성된	-11.8929
범	-11.893
▁확인해보면	-11.8931
인거죠	-11.8932
▁복사에	-11.8932
▁됬네요	-11.8933
▁시도해보	-11.8937
라운드	-11.8942
▁변경해야	-11.8944
품	-11.8945
########	-11.8946
맵	-11.8947
클	-11.8948
Stack	-11.8948
space	-11.8948
StringBuilder	-11.8948
depth	-11.8948
그리디	-11.8948
▁되어야합니다	-11.8948
테니까요	-11.8948
▁바꾸신	-11.8949
▁방법이라고	-11.8949
포함	-11.8949
▁해주셔야합니다	-11.895
▁알파벳으로	-11.8951
▁되어버리	-11.8951
내부	-11.8952
book	-11.8953
▁기본으로	-11.8953
▁움직이면	-11.8954
▁제시해주신	-11.8954
▁메인함수	-11.8954
there	-11.8956
▁세개	-11.8958
▁해줘야합니다	-11.8958
▁정수론	-11.896
이럴	-11.896
▁데이터들	-11.8963
123456	-11.8965
▁뭐라	-11.8966
▁보정	-11.8971
▁했다	-11.8974
flow	-11.8978
▁원리로	-11.898
▁건너뛰는	-11.8982
▁돌리니	-11.8982
쪽이	-11.8985
▁참조를	-11.8987
▁했었습니다	-11.8987
하시는데	-11.8988
▁Out	-11.8991
하셨기	-11.8991
###	-11.8992
▁용	-11.8993
▁건드리	-11.8995
kw	-11.8996
▁뜻인데	-11.8996
oh	-11.8997
▁있지요	-11.8998
▁난수	-11.9
▁작용	-11.9002
▁원소들은	-11.9004
▁거라서	-11.9005
▁멈추는	-11.9008
▁같은경우	-11.9011
▁노드와	-11.9011
▁시작부터	-11.9016
113	-11.9016
▁돌아가게	-11.9017
%4	-11.9018
▁함정이	-11.9018
했나보네요	-11.9019
안한	-11.902
▁baekjoon	-11.902
star	-11.9022
▁제출할때	-11.9027
▁결국은	-11.903
▁포함시키	-11.903
rat	-11.9033
▁벗어나기	-11.9034
해줬더니	-11.9036
**)	-11.9036
▁),	-11.9037
▁선에서	-11.904
xxxx	-11.9041
세번째	-11.9042
fr	-11.9044
합이	-11.9045
LI	-11.9045
▁기다리는	-11.9048
▁501	-11.905
▁할당하면	-11.9051
▁인경우	-11.9053
▁불리	-11.9053
문만	-11.9053
▁페이지에	-11.9053
[2];	-11.9053
▁판정이	-11.9054
▁넣어주셔야	-11.9055
▁했었	-11.9059
▁넘기면	-11.9059
445	-11.9062
▁리턴하게	-11.9063
▁만점	-11.9063
150	-11.9064
▁해결되었	-11.9064
(??)	-11.9065
▁divide	-11.9066
페	-11.9067
/////	-11.9068
▁조합으로	-11.9069
378	-11.907
람	-11.9071
▁나눗셈이	-11.9071
▁겹쳐	-11.9072
칩니다	-11.9074
▁OR	-11.9075
▁처리되는	-11.9075
장이	-11.9077
ach	-11.9079
▁seg	-11.9079
▁Dijkstra	-11.9079
▁comprehension	-11.9079
▁isPalindrome	-11.9079
▁사라집니다	-11.9079
▁옮길	-11.9079
▁화살표	-11.9079
▁획득	-11.9079
껍니다	-11.9079
봄	-11.9079
▁일관성	-11.9079
▁dolor	-11.9079
▁$2$	-11.9079
▁터질	-11.9079
▁벨만포드	-11.9079
▁검은	-11.908
▁진출	-11.908
▁상대방	-11.908
▁커브	-11.908
▁돌아올	-11.908
▁있나보네요	-11.908
▁천사	-11.9081
▁종말	-11.9081
군여	-11.9081
1[0]	-11.9081
▁스택오버플로우	-11.9081
▁나오더라고요	-11.9081
▁찍히	-11.9081
▁걸리므로	-11.9081
▁시간초과에	-11.9082
▁뜨더라구요	-11.9082
▁장치	-11.9082
▁풀어봐야	-11.9082
▁quicksort	-11.9082
▁생각해보셔야	-11.9082
▁끝낼	-11.9083
▁조회	-11.9083
▁마음대로	-11.9083
cstdio	-11.9083
▁유지하면서	-11.9085
프리	-11.9085
▁아니어서	-11.9086
▁전개	-11.9086
▁더더욱	-11.9086
▁거리에	-11.9088
▁증가시키고	-11.9088
느냐에	-11.9088
▁301	-11.9088
▁물건의	-11.909
▁비트마스킹	-11.9092
▁사칙연산	-11.9092
▁할당해주	-11.9092
▁유지됩니다	-11.9093
▁구간합	-11.9093
▁then	-11.9093
▁진행될	-11.9093
랄	-11.9094
▁성능을	-11.9094
650	-11.9094
할만한	-11.9095
▁그런거였군요	-11.9095
▁빼먹었	-11.9095
we	-11.9095
▁서비스	-11.9096
libc	-11.9096
▁어렵다고	-11.9096
▁바꿔주고	-11.9098
▁연결되지	-11.9098
▁갑사합니다	-11.91
▁수정되어야	-11.91
▁갱신된	-11.9103
▁RecursionError	-11.9103
▁로프	-11.9104
▁변경했습니다	-11.9105
▁안보이네요	-11.9105
▁갱신해	-11.9105
급수	-11.9107
▁당겨	-11.9107
▁말인가요	-11.9108
101010101010	-11.9108
▁4999	-11.9108
▁정해지지	-11.9109
ue	-11.9111
▁초과라고	-11.9112
▁연속한	-11.9114
▁(6	-11.9114
▁싶으신	-11.9114
▁브루트	-11.9114
중인	-11.9115
▁실행시간이	-11.9116
▁움직이지	-11.9117
▁올라와	-11.9118
▁생성하고	-11.9119
▁될듯합니다	-11.912
▁원인인	-11.912
/3)	-11.9121
어제	-11.9121
▁기준점	-11.9123
756	-11.9125
▁잘못된건가요	-11.9125
▁333	-11.9126
형인	-11.9126
▁반성	-11.9127
▁상태는	-11.9128
▁분배	-11.913
ure	-11.913
dic	-11.913
▁안날	-11.913
▁지워진	-11.9131
▁어기	-11.9131
▁그중	-11.9132
▁실패한	-11.9133
▁읽어보시는	-11.9136
▁성공한	-11.9137
▁있으	-11.9138
▁방을	-11.9138
▁more	-11.914
▁build	-11.914
Table	-11.9141
▁기록이	-11.9142
▁차원	-11.9143
0228	-11.9143
▁설명해주신	-11.9144
▁일반적으로는	-11.9144
▁더해지	-11.9146
▁사라지	-11.9149
▁출력되었습니다	-11.915
▁안정적	-11.915
▁(3)	-11.9151
▁틀려야	-11.9152
▁판단하여	-11.9152
▁조언해주신	-11.9153
▁substring	-11.9154
▁어마어마	-11.9157
하는걸로	-11.9159
▁돌려보지	-11.9163
▁반복하고	-11.9165
▁로직상	-11.9167
▁minus	-11.9169
▁이야기입니다	-11.9171
▁설명에서	-11.9171
▁최댓값과	-11.9173
▁통과하고	-11.9173
▁말씀은	-11.9173
------	-11.9176
하였기	-11.9176
▁읽어오	-11.9181
▁버려지	-11.9183
▁포함해야	-11.9183
▁화면에서	-11.9184
처음부터	-11.9187
▁비율을	-11.9188
▁들어왔	-11.919
▁문제인지는	-11.9191
길이를	-11.9192
101010	-11.9194
었다면	-11.9194
내에서	-11.9198
▁hello	-11.9199
▁부족해	-11.9202
▁질문한	-11.9203
▁규칙에	-11.9203
▁동전이	-11.9204
▁컴파일에러가	-11.9204
▁그런지는	-11.9205
선가	-11.9205
▁다양하	-11.9206
▁시작점으로	-11.9209
▁편하	-11.921
135	-11.9214
545	-11.9215
▁넣었다	-11.9215
▁으아	-11.9216
▁정점까지	-11.922
▁xx	-11.9222
취	-11.9223
칸씩	-11.9224
solve	-11.9225
모듈	-11.9225
●	-11.9225
public	-11.9225
사이클	-11.9226
부탁드립니다	-11.9226
감사합니당	-11.9226
오름차순	-11.9226
모양	-11.9227
억보다	-11.9227
닫	-11.9227
무조건	-11.9227
▁방에	-11.9228
인접	-11.9229
▁걸린다는	-11.923
▁한데요	-11.923
▁4.0	-11.9231
일까	-11.9231
page	-11.9233
▁너	-11.9236
▁계산되는	-11.9237
▁parents	-11.9237
커서	-11.9238
▁개념에	-11.9238
▁인덱스까지	-11.9239
▁적용이	-11.9239
▁stdlib	-11.924
199	-11.9244
▁추가되지	-11.9247
▁이네요	-11.9248
이후에	-11.9248
▁것이라는	-11.9251
번재	-11.9253
Idx	-11.9255
▁보시	-11.9255
nxt	-11.9257
▁꼬인	-11.9259
▁이렇게만	-11.926
▁대입해	-11.926
▁잘못하신	-11.9262
▁순서와	-11.9266
▁fast	-11.9267
▁찾아내는	-11.9268
▁설명할	-11.927
하셨으니	-11.9271
104	-11.9274
형식으로	-11.9274
라인이	-11.9274
▁조심해야	-11.9275
▁(8	-11.9276
~~!!	-11.9279
▁없애면	-11.928
▁쓰여있	-11.928
▁실행합니다	-11.9283
▁돌아오는	-11.9287
▁0.2	-11.9294
!!!!!!!!!!	-11.9294
쪽에서	-11.9296
▁적었	-11.9296
4999	-11.9296
==2	-11.9297
▁링크는	-11.9299
▁보이게	-11.9299
주셔도	-11.9299
▁ᄀ	-11.9299
▁만드셨	-11.9301
▁수행하기	-11.9304
후자	-11.9304
주셨네요	-11.9305
Na	-11.9307
▁바꾸셨	-11.9307
라기보다는	-11.9307
하시다면	-11.9311
▁붙여넣	-11.9311
▁빈칸을	-11.9311
개라는	-11.9313
▁인자에	-11.9313
▁것이나	-11.9314
드리자면	-11.9314
210	-11.9315
▁시키고	-11.9315
한가지	-11.9317
▁이뤄지	-11.9318
▁하시거나	-11.9319
"\	-11.9319
▁이상해서	-11.9319
답글	-11.9322
▁만족시키	-11.9323
over	-11.9325
#####	-11.9325
랬	-11.9325
331	-11.9326
▁집합이	-11.9327
▁내려가는	-11.9328
▁인덱스부터	-11.9329
▁사용하니	-11.9332
▁이용하지	-11.9334
▁오답처리	-11.9337
리지	-11.9337
▁썼을	-11.9338
▁코드네요	-11.9342
▁건강	-11.9342
▁들어주신	-11.9348
▁끌어	-11.9348
});	-11.935
__'	-11.9352
념	-11.9354
117	-11.9354
해보입니다	-11.9355
▁얻었	-11.9356
▁문제풀	-11.9356
1234567	-11.9356
≥	-11.9357
▁333,334	-11.9357
▁깨닫고	-11.9357
▁나타난	-11.9357
▁나타납니다	-11.9357
▁로봇이	-11.9357
▁비숍	-11.9357
▁오작교	-11.9357
▁컴포넌트	-11.9357
Baekjoon	-11.9357
▁Quick	-11.9357
▁lacus	-11.9357
▁규정	-11.9357
▁보충	-11.9358
▁도킹	-11.9358
▁강조	-11.9358
▁착각을	-11.9358
javase	-11.9359
▁정독	-11.9359
▁좁	-11.9359
▁비롯한	-11.936
▁순서쌍	-11.936
/25	-11.936
▁나름대로	-11.9361
▁있는건지	-11.9361
▁표현입니다	-11.9362
▁모르겠군요	-11.9362
▁권합니다	-11.9363
▁생각해보시기	-11.9363
▁들었는데	-11.9363
▁해결하셨을	-11.9363
refer	-11.9364
▁연산량이	-11.9365
▁내리는	-11.9365
▁세울	-11.9366
▁했다는	-11.9367
▁위배	-11.9367
▁커버할	-11.9367
▁검사하게	-11.9369
▁작동하네요	-11.937
▁argument	-11.937
▁펠린드롬	-11.937
▁익혀	-11.937
▁이루어져야	-11.9372
▁골라서	-11.9372
▁그런식으로	-11.9373
▁구하고자	-11.9373
▁앞부분	-11.9373
▁감시	-11.9374
▁틀린부분	-11.9375
야하는	-11.9375
...??	-11.9376
▁썼던	-11.9376
▁설치할	-11.9376
▁씌워	-11.9376
초만에	-11.9377
▁작은지	-11.9377
-'0'	-11.9377
▁있던데	-11.9377
yda	-11.9377
▁수정되었습니다	-11.9378
EE	-11.9378
▁공장	-11.9379
▁적용해	-11.9381
▁나겠죠	-11.9381
▁안타깝게도	-11.9382
+7	-11.9384
▁빵	-11.9385
▁'__	-11.9386
▁판단하게	-11.9388
▁맞았던	-11.9388
귀	-11.9389
▁맞나	-11.9392
▁사용되고	-11.9393
▁가능하니	-11.9394
만인	-11.9394
문에서는	-11.9395
<3	-11.9396
=-1	-11.9396
▁less	-11.9397
▁삭제된	-11.9398
▁(2,3)	-11.9399
part	-11.94
▁거지	-11.94
▁VLA	-11.9401
▁부정확	-11.9402
WBWWWB	-11.9402
▁지나는	-11.9403
주의	-11.9404
▁적혀있	-11.9405
▁대입하고	-11.9406
▁공유합니다	-11.9406
▁2000000000	-11.9407
▁했는데요	-11.9408
행이	-11.941
▁안되는군요	-11.9411
▁작성하여	-11.9412
old	-11.9412
▁선택하고	-11.9413
▁처리했습니다	-11.9413
▁골라야	-11.9414
dis	-11.9417
▁[1,2]	-11.9421
가지로	-11.9421
▁정의하면	-11.9422
▁가지만	-11.9422
▁결정할	-11.9422
▁언어입니다	-11.9423
▁끼	-11.9424
=1000	-11.9425
▁문제에요	-11.9426
▁났다	-11.9426
▁점과	-11.9428
▁팰린드롬이	-11.9429
▁들어가네요	-11.943
▁0}	-11.943
jung	-11.943
▁좋은하루	-11.943
▁초보라	-11.9431
▁월	-11.9431
▁이어져	-11.9433
▁주실수	-11.9434
▁바깥으로	-11.9435
▁필	-11.9435
가지의	-11.9438
▁최단경로가	-11.9439
▁넘기고	-11.944
▁바라	-11.9441
424	-11.9441
▁귀한	-11.9442
바꾸	-11.9442
▁떼	-11.9445
hs	-11.9445
▁있냐	-11.9446
▁잡으셨	-11.9447
▁해주기	-11.9448
vie	-11.9451
▁출력하려면	-11.9452
0315	-11.9453
▁의아	-11.9453
▁scores	-11.9453
▁옷	-11.9453
하러	-11.9453
▁구하는데	-11.9454
▁해결하지	-11.9456
421	-11.9457
▁제시되어	-11.946
▁주시기	-11.9465
▁231	-11.9466
)(1,	-11.9467
▁방문했을	-11.9468
▁이런건	-11.9469
▁양분	-11.947
▁대입한	-11.947
1,2,3,4,5	-11.9471
▁어디로	-11.9472
늘	-11.9473
▁디버깅용	-11.9474
948	-11.9475
▁영문	-11.9476
▁정한	-11.9477
▁목적이	-11.9479
▁118	-11.948
sw	-11.948
▁없고요	-11.948
▁돌릴때	-11.9482
647	-11.949
▁...)	-11.949
▁사용시	-11.9492
▁사용되지	-11.9494
▁꼬여	-11.9495
해질	-11.9495
▁계산되어	-11.9496
888	-11.9496
▁100,000)	-11.95
홀	-11.9501
ever	-11.9505
연결	-11.9505
precision	-11.9506
▁원인입니다	-11.9507
▁적용된	-11.9508
Left	-11.9508
컵	-11.951
▁오른쪽의	-11.9511
operator	-11.9511
하더라고요	-11.9511
줄바꿈	-11.9511
반드시	-11.9512
감사해요	-11.9512
참고하세요	-11.9513
말씀해주신대로	-11.9516
apple	-11.9516
~13	-11.9518
개행문자	-11.9519
rear	-11.952
▁eu	-11.9524
라던가	-11.9525
▁해야하는지	-11.9529
▁용량이	-11.9534
▁작동하는지	-11.9534
▁보시겠어요	-11.9535
▁바꾸시는	-11.9537
상대	-11.9538
▁우연히도	-11.9539
Deque	-11.954
▁생성되는	-11.9541
해보시겠어요	-11.9543
▁처리해서	-11.9546
▁8000	-11.9547
고민	-11.9547
1\	-11.9547
▁상수로	-11.9548
▁구분하는	-11.955
▁문제같은	-11.955
▁여야	-11.9551
▁모르면	-11.9552
▁위처럼	-11.9552
▁세기	-11.9554
▁반환되는	-11.9558
▁찾는다	-11.9559
하기위해	-11.9564
▁과정으로	-11.9565
질문글	-11.957
▁비우	-11.957
밑	-11.9572
예제가	-11.9574
▁비교했을	-11.9577
user	-11.9577
▁초기화는	-11.9578
▁해주시는	-11.9578
206	-11.9579
▁most	-11.9582
▁삽입할	-11.9586
▁par	-11.9587
▁스트림에	-11.9589
▁수준의	-11.959
▁없어지	-11.9591
▁1500	-11.9591
했었어요	-11.9593
~35	-11.9593
▁올려주시는	-11.9594
▁알아두	-11.9597
▁도달했을	-11.9601
덕	-11.9602
()-1	-11.9603
실력	-11.9604
(6	-11.9606
▁파이썬에	-11.9606
틀렸	-11.9609
▁찾아본	-11.9611
cdg	-11.9611
ram	-11.9612
▁SIZE	-11.9615
▁효과적	-11.9616
▁글쓴이님	-11.9618
▁문법은	-11.9618
정해	-11.9619
었으니	-11.962
번입니다	-11.9621
▁배달	-11.9621
▁일부만	-11.9622
▁항이	-11.9622
▁해결해서	-11.9623
▁선언하신	-11.9628
▁쉬워	-11.963
mm	-11.963
슴	-11.9631
▁가지지	-11.9635
▁만들게	-11.9636
ian	-11.9636
▁갖	-11.9639
캐	-11.964
배가	-11.9641
▁스포	-11.9641
빨	-11.9641
ᄇ	-11.9642
▁accept	-11.9643
WeissBlume	-11.9643
palilo	-11.9643
▁달팽이	-11.9643
▁빙산	-11.9643
▁없앨	-11.9643
▁죽어	-11.9643
▁캐릭터	-11.9643
▁컨트롤	-11.9643
윽	-11.9643
죵	-11.9643
▁가급적	-11.9643
▁비슷합니다	-11.9643
tlsd	-11.9643
▁XOR	-11.9643
microsoft	-11.9643
▁memoization	-11.9643
blob	-11.9643
▁일어났	-11.9643
▁넣어보셨나요	-11.9644
▁알기론	-11.9644
▁공유드렸습니다	-11.9644
▁놓쳤었네요	-11.9644
▁절차	-11.9644
▁있더군요	-11.9645
▁어케	-11.9645
▁채점서버	-11.9645
▁싶었습니다	-11.9645
▁valid	-11.9645
▁고쳐주세요	-11.9645
▁올려드립니다	-11.9646
▁찾아봐야겠네요	-11.9646
▁나왔어요	-11.9646
▁필요하다면	-11.9646
▁출력하시오	-11.9646
▁적합한	-11.9647
▁돌렸습니다	-11.9647
▁적혀있습니다	-11.9647
▁throws	-11.9647
들에서	-11.9647
▁늦었네요	-11.9647
▁가능하다면	-11.9648
▁2^32	-11.9648
▁사용하시거나	-11.9649
▁볼록	-11.9649
▁cc	-11.965
.##.##.	-11.965
▁통과했어요	-11.9651
▁칠하는	-11.9651
▁이루어지고	-11.9651
▁넣어보니	-11.9652
▁생각해봐야	-11.9652
▁calc	-11.9654
▁풀었는지	-11.9655
만들어	-11.9655
▁0){	-11.9656
100001	-11.9657
▁생각하시고	-11.9658
▁통과하실	-11.9659
472	-11.966
▁근본적으로	-11.9661
▁교수님	-11.9661
▁한거	-11.9663
▁되어있고	-11.9663
▁선언과	-11.9664
▁브라우저	-11.9664
]=1	-11.9665
▁문제랑	-11.9666
▁이어진	-11.9666
출력은	-11.9667
▁뜻합니다	-11.9668
▁뇌	-11.9668
▁애매	-11.9668
▁쓰든	-11.9669
▁구하시면	-11.9669
이것을	-11.9669
▁출발하는	-11.967
▁맞으실	-11.967
▁시작한지	-11.9671
▁변하게	-11.9672
▁독	-11.9672
▁공지사항에	-11.9672
▁나올거에요	-11.9672
▁계기	-11.9673
▁남아있게	-11.9673
찾아	-11.9673
▁특	-11.9673
▁어째서	-11.9674
정도면	-11.9675
안되	-11.9676
▁AND	-11.9676
싶습니다	-11.9677
▁할듯	-11.9679
▁옮긴	-11.968
[0]==	-11.968
▁생각한다면	-11.9682
▁난해	-11.9682
▁접근하여	-11.9683
▁차이점은	-11.9684
축에	-11.9684
▁간선만	-11.9687
▁맞기	-11.9688
▁mixed	-11.9688
/20...	-11.9688
▁===	-11.9689
----	-11.969
▁평소에	-11.9691
▁벡터로	-11.9691
▁작을때	-11.9692
▁Trace	-11.9692
▁출력부분	-11.9694
▁-13	-11.9695
냐는	-11.9696
▁정수입니다	-11.9696
▁혼용	-11.9697
▁끼워넣	-11.9697
-20	-11.9697
▁뱀이	-11.9698
▁대응되는	-11.9698
보이네요	-11.9699
▁봐주셔	-11.97
▁잡아내	-11.97
▁데이터와	-11.97
▁지정해	-11.9702
▁관점에서	-11.9703
ity	-11.9704
ight	-11.9705
▁source	-11.9705
▁돌때	-11.9707
▁■	-11.9707
▁예시와	-11.9707
)['	-11.9708
▁area	-11.9709
▁버려	-11.9711
▁en	-11.9716
810	-11.9717
▁해석하는	-11.9719
있어	-11.972
▁쓰이지	-11.972
▁지을	-11.9721
▁정리해	-11.9722
엇네요	-11.9724
▁되던데	-11.9724
▁리턴할	-11.9725
해두면	-11.9725
하겠군요	-11.9727
▁blue	-11.9727
▁파인드	-11.9729
▁했습니다만	-11.9729
▁쓰던	-11.9731
put	-11.9731
▁차이인	-11.9732
▁대학	-11.9733
[0]);	-11.9735
▁양방향으로	-11.9737
way	-11.9738
▁쳐도	-11.9738
▁이긴	-11.9739
▁향	-11.9745
hy	-11.9747
▁비해서	-11.9747
▁-11	-11.9747
같아	-11.9749
436	-11.975
▁현황에서	-11.9752
쓰고	-11.9754
▁채워넣	-11.9754
▁써야할	-11.9756
)5	-11.9758
▁좋을듯	-11.9758
▁info	-11.9759
>::	-11.976
스를	-11.9763
]==0	-11.9768
▁건데요	-11.9768
▁일부분	-11.9769
▁위하여	-11.9769
졌네요	-11.9771
999999999	-11.9774
▁중에서도	-11.9776
쓰기	-11.9776
두신	-11.9777
▁찾으신	-11.9778
▁If	-11.979
▁탈출하지	-11.9792
216	-11.9793
/20	-11.9795
냐고	-11.9796
필	-11.9797
쓸	-11.9797
▁aaaa	-11.9797
▁바와	-11.98
▁해주니까	-11.9801
▁2021	-11.9802
합니당	-11.9803
둡니다	-11.9803
꾸벅	-11.9803
흐	-11.9804
사분면	-11.9805
cursor	-11.9805
점화식	-11.9805
solution	-11.9805
다이나믹	-11.9805
주사위	-11.9805
사이즈	-11.9806
Char	-11.9806
해봤더니	-11.9807
gcd	-11.9809
하십니다	-11.9809
동일한	-11.981
▁비정상	-11.981
119	-11.9811
▁(100	-11.9812
▁풀이와	-11.9813
좀더	-11.9814
▁좋아하는	-11.9816
705	-11.9816
▁보시는게	-11.9817
▁돌려주	-11.9818
▁셈	-11.982
▁조합이	-11.9822
▁셈이	-11.9823
▁교	-11.9826
여기에서	-11.9827
개인적으로는	-11.9828
3333	-11.9828
▁기다려	-11.9834
not	-11.9835
▁의견이	-11.9836
상수	-11.9838
▁안된다	-11.9839
▁원소만	-11.984
▁카	-11.9841
▁변이	-11.9841
▁의도에	-11.9842
▁할당받	-11.9843
주시는게	-11.9843
▁팀의	-11.9847
▁들어와	-11.985
.----	-11.9854
▁부분들이	-11.9855
677	-11.9857
▁지워지	-11.986
▁해당하지	-11.9861
그대로	-11.9862
▁형변환이	-11.9862
▁빨라지	-11.9865
시간에	-11.9866
▁넣어봤	-11.987
()){	-11.9873
are	-11.9877
▁초기화되는	-11.9893
문제도	-11.9897
▁결론은	-11.9898
PP	-11.99
▁쓸데없	-11.99
▁깨달	-11.9901
▁질의	-11.9902
▁해야할지	-11.9902
▁포함되	-11.9904
받도록	-11.9906
908	-11.9906
▁142	-11.9908
▁안쪽에	-11.9909
▁영역은	-11.991
HO	-11.9911
하겠다	-11.9917
럼	-11.9917
해주셨습니다	-11.9918
▁탈출하게	-11.9918
dc	-11.9919
해드릴	-11.992
▁언젠가	-11.992
롭	-11.9923
--------	-11.9923
▁없어보	-11.9923
▁존재하게	-11.9923
부끄럽	-11.9926
*2)	-11.9927
▁사라졌	-11.9931
세용	-11.9932
같습니다	-11.9932
▁부분인	-11.9933
▁그것보다	-11.9934
▁남겨두	-11.9935
기보다는	-11.9936
솔	-11.9937
풍	-11.9937
august	-11.9937
/32737	-11.9937
▁디스코드	-11.9937
됫	-11.9937
bamgoesn	-11.9937
←	-11.9937
▁Segment	-11.9937
▁동아리	-11.9937
▁죽는	-11.9937
960	-11.9937
▁thread	-11.9937
▁설탕	-11.9937
▁여섯	-11.9937
▁must	-11.9937
▁누른	-11.9937
▁unstable	-11.9937
▁파티션	-11.9937
php	-11.9937
▁읽어보시기	-11.9938
▁빠질	-11.9938
▁있나봅니다	-11.9939
▁바꾸세요	-11.9939
▁도입	-11.9939
Parse	-11.9939
▁어림	-11.9939
▁않았었네요	-11.9939
▁틀렸을까요	-11.994
▁135	-11.994
▁조치	-11.994
▁개최	-11.9941
▁요구사항	-11.9941
444	-11.9941
▁아니였군요	-11.9942
▁아니였네요	-11.9942
이아니라	-11.9942
kdh	-11.9942
▁있었다니	-11.9942
Hard	-11.9944
▁이기는	-11.9944
▁쓰려면	-11.9945
▁구축	-11.9945
-45	-11.9945
▁일어나면	-11.9945
▁왜인지	-11.9946
▁쪼개서	-11.9947
▁오호	-11.9947
가봐요	-11.9948
▁자식노드	-11.9949
▁맞아서	-11.9949
▁포기하고	-11.995
▁다르다면	-11.9953
▁파악하지	-11.9953
해보면서	-11.9953
mul	-11.9954
▁머지	-11.9954
▁구글링해서	-11.9954
▁필요성	-11.9955
▁하하하	-11.9956
▁고수분들	-11.9958
▁꽃	-11.9959
▁인터랙티브	-11.9959
세대	-11.996
▁팀원	-11.996
거였어요	-11.9961
▁아웃풋	-11.9963
되었어요	-11.9963
▁초기화해주세요	-11.9964
▁판정하는	-11.9964
▁끝내는	-11.9965
질문자	-11.9965
▁2^31-1	-11.9965
▁바뀌고	-11.9969
▁역원	-11.997
▁bounds	-11.997
▁World	-11.9971
▁calculate	-11.9971
▁추가하겠습니다	-11.9973
▁거쳐야	-11.9974
▁after	-11.9975
▁연산하는	-11.9976
▁그것은	-11.9977
zzz	-11.9979
▁Collections	-11.9979
▁상단에	-11.998
▁제곱을	-11.998
▁실행되어	-11.9981
▁담은	-11.9986
▁맞아야	-11.9986
[1];	-11.9987
나갈	-11.9987
▁안써도	-11.9988
▁들은	-11.9989
간다	-11.9992
385	-11.9994
▁호출하여	-11.9996
▁비교하지	-11.9998
자는	-11.9999
▁10^7	-12
▁달라지지	-12
▁작은것	-12.0002
art	-12.0003
[1][3]	-12.0006
▁positive	-12.0007
709	-12.001
▁밀리	-12.001
칸에	-12.0013
경우에는	-12.0014
▁양수로	-12.0016
RB	-12.0016
하단	-12.0017
▁드리는	-12.0019
▁줄바꿈으로	-12.0019
▁나도	-12.0021
▁9;	-12.0022
되었으므로	-12.0022
▁만들어주는	-12.0022
분에	-12.0023
▁가정할	-12.0024
▁앞뒤로	-12.0024
▁면이	-12.0025
/60	-12.0027
159	-12.0027
▁만들어주	-12.0028
▁컨	-12.0029
▁백준님께	-12.0033
마저	-12.0034
▁법은	-12.0036
▁거치면	-12.0039
214	-12.004
▁👍	-12.0041
▁공기	-12.0041
▁출력되기	-12.0042
▁검색해보니	-12.0043
ical	-12.0044
▁글쓴이	-12.0044
▁(7	-12.0045
II	-12.0046
▁담겨있	-12.0046
▁money	-12.0048
▁짜도	-12.0048
*1000	-12.0048
WBWB	-12.0049
▁움직여야	-12.0049
보아도	-12.005
ope	-12.0054
324	-12.0058
158	-12.0058
▁문자입니다	-12.0061
▁명시된	-12.0062
qu	-12.0065
▁추가됩니다	-12.0068
바이트로	-12.007
▁힌트입니다	-12.007
▁post	-12.007
할떄	-12.007
▁전용	-12.0073
때문입니다	-12.0073
▁지정하지	-12.0074
▁출력했을	-12.0079
▁논	-12.008
▁입력되지	-12.0081
▁올리셨	-12.0082
▁제출하고	-12.0082
▁나누어떨어지는	-12.0082
208	-12.0083
▁----------	-12.0084
▁파악하는	-12.0084
▁짐작	-12.0087
▁변수인	-12.0088
▁2/1	-12.0088
▁없이도	-12.0088
9,999	-12.0091
.---	-12.0092
▁발생시키는	-12.0093
/15	-12.0094
|)	-12.0095
=2;	-12.0095
준다	-12.0095
▁끝으로	-12.0096
can	-12.0096
▁.......	-12.0096
같은데	-12.01
▁seico	-12.01
▁width	-12.01
▁싸이클이	-12.0104
원문	-12.0105
▁포함될	-12.0106
hello	-12.0107
대각선	-12.0108
▁발견할	-12.0111
계단	-12.0111
드리는	-12.0112
▁하다보면	-12.0112
표를	-12.0113
▁구문은	-12.0113
▁거기까지	-12.0114
(0,0)	-12.0114
▁초기화된	-12.0115
▁빼주	-12.0116
결과적으로	-12.0117
임의의	-12.0119
▁코딩하는	-12.0121
깊이	-12.0121
▁있었나	-12.0122
▁Qu	-12.0126
~25	-12.0127
▁순간이	-12.0127
▁여러개인	-12.0128
▁등과	-12.0129
INT	-12.0129
▁사용한다는	-12.0129
▁바꿨을	-12.013
원인은	-12.0133
BBWB	-12.0134
▁해보시고	-12.0135
Arrays	-12.0136
qsort	-12.0136
봤어요	-12.0136
등등	-12.0139
▁왼쪽의	-12.0141
308	-12.0141
▁채점환경	-12.0141
감사합니다감사합니다감사합니다	-12.0141
▁정해주	-12.0143
▁phi	-12.0144
아아아아	-12.0144
cat	-12.0146
875	-12.0147
RL	-12.0148
dr	-12.0151
▁돌아가는지	-12.0152
없음	-12.0153
▁Heap	-12.0154
▁보기에	-12.0154
▁인접해	-12.016
▁쓸수	-12.0161
+1];	-12.0162
▁age	-12.0164
▁지속적	-12.0166
밖	-12.0168
984	-12.0169
▁요지	-12.017
ize	-12.0171
944	-12.0175
▁하셨던	-12.0176
▁줄여보	-12.0177
ᅲᅮᅲᅮ	-12.0177
▁불러오	-12.0178
▁색으로	-12.0179
101111	-12.0181
▁어려움	-12.0183
LE	-12.0184
168	-12.0184
▁질문입니다	-12.0185
▁코드상	-12.0185
abcde	-12.0186
▁것들도	-12.0186
)3.	-12.0186
수학	-12.0186
▁배웠	-12.0187
▁적절	-12.0188
▁입력조건	-12.0188
(9	-12.0191
▁시켜야	-12.0192
126	-12.0192
▁뽑아내	-12.0193
lu	-12.0194
WBWBWBWBBWBWBWBW	-12.0194
▁뛰어넘	-12.0199
▁거르	-12.0201
▁입력해서	-12.0203
▁백준은	-12.0204
▁반환한	-12.0206
초기화를	-12.0207
▁<--	-12.0208
남은	-12.0209
▁오역	-12.021
▁거치는	-12.021
▁어떨	-12.0214
▁되어있기	-12.0216
EX	-12.0216
▁연산과	-12.0218
▁콘솔에	-12.0221
(7)	-12.0221
적은	-12.0222
▁마지막까지	-12.0222
▁까요	-12.0224
▁전위	-12.0228
▁가리키	-12.023
많	-12.0231
▁누르는	-12.0231
컬	-12.0234
▁여쭤보	-12.0234
▁취향	-12.0237
슨	-12.0239
▁임포	-12.0239
Group	-12.024
blobaww	-12.024
▁그렇죠	-12.024
▁난쟁이	-12.024
▁울타리	-12.024
▁테두리	-12.024
▁퍼포먼스	-12.024
▁답답했는데	-12.024
▁없앴	-12.024
ONG	-12.024
▁'.']['	-12.024
▁계산식	-12.024
▁면접	-12.024
▁산술	-12.024
▁위주로	-12.024
▁해시맵	-12.024
보세여	-12.0241
▁넘어설	-12.0241
▁기껏	-12.0241
▁여는	-12.0241
▁iteration	-12.0241
▁shallow	-12.0241
▁기업	-12.0241
▁흐음	-12.0241
▁있길래	-12.0242
▁실수오차	-12.0242
▁우승	-12.0243
▁받아올	-12.0243
▁외우	-12.0243
▁빠져있습니다	-12.0243
▁해킹	-12.0244
▁다르겠지만	-12.0244
▁공개되었습니다	-12.0244
크기를	-12.0245
▁인증	-12.0245
▁특별상	-12.0245
▁wall	-12.0245
▁공부해야겠네요	-12.0245
▁require	-12.0246
▁작아지	-12.0246
되었으면	-12.0246
kdk	-12.0247
▁돌리니까	-12.0248
▁깔끔하고	-12.0248
되질	-12.0249
▁있겠	-12.0249
▁복사되어	-12.0249
▁찾으려면	-12.025
▁괜찮다고	-12.025
만이면	-12.025
▁틀려요	-12.0251
▁used	-12.0251
won	-12.0251
▁해결하니	-12.0252
▁나더라구요	-12.0252
왔는데	-12.0252
▁서쪽	-12.0252
▁고민해보고	-12.0254
▁뽑고	-12.0255
▁눌러야	-12.0255
주었습니다	-12.0256
▁떠오르	-12.0256
▁하시는게	-12.0258
▁복사하면	-12.0258
▁순수	-12.026
▁부모노드	-12.0261
▁완벽한	-12.0261
▁쓰시고	-12.0261
▁인식하고	-12.0262
▁곰곰히	-12.0263
▁실행해보세요	-12.0263
▁틀린걸까요	-12.0264
Str	-12.0265
▁코드대로라면	-12.0265
▁쓰이고	-12.0266
▁알려주시	-12.0267
했나봅니다	-12.0267
▁찍	-12.0267
▁변수들이	-12.0268
▁맞추고	-12.0268
▁필요하다는	-12.027
▁구현했는데	-12.027
▁종만북	-12.0271
968	-12.0271
▁이미지	-12.0272
▁출력되도록	-12.0272
▁일정한	-12.0272
▁느리고	-12.0275
최대값	-12.0276
년이	-12.0276
▁부분이네요	-12.0276
▁상황이라면	-12.0278
▁만드는데	-12.0278
▁IOException	-12.028
▁추가되어야	-12.028
▁탐색에	-12.0281
▁상태이기	-12.0283
▁글자로	-12.0283
011	-12.0283
▁자바스크립트	-12.0284
▁배열만	-12.0285
985	-12.0285
▁정하고	-12.0285
▁3/1	-12.0286
▁원리가	-12.0287
▁알아보고	-12.0287
▁작지	-12.029
▁상으로	-12.029
본적이	-12.0292
▁해결하려고	-12.0293
▁언어마다	-12.0293
▁이틀	-12.0293
▁시마다	-12.0294
▁저에게	-12.0294
▁증가하고	-12.0295
▁있을수도	-12.0295
봤자	-12.0295
▁2015	-12.0295
▁극단적으로	-12.0297
▁붙였	-12.0301
▁정리가	-12.0302
132	-12.0302
▁나타나지	-12.0304
▁발견한	-12.0304
▁불러오는	-12.0305
팀이	-12.0305
▁문제군요	-12.0305
▁자리만	-12.0307
▁될때까지	-12.0308
▁확률은	-12.0308
이것은	-12.0308
▁어딘가에서	-12.031
▁감사합	-12.0312
▁Type	-12.0312
▁642	-12.0313
nu	-12.0316
▁1~4	-12.0317
거때문에	-12.0317
999999999999999	-12.0323
▁/=	-12.0323
▁논의	-12.0327
pe	-12.0327
▁확인하여	-12.0328
▁더해주고	-12.0329
▁검사해서	-12.033
▁(1,0)	-12.0333
386	-12.0335
▁더미	-12.0337
ᅲᅲᅲᅲᅲᅲᅲᅲᅲᅲᅲᅲᅲᅲᅲᅲ	-12.0337
▁어떨지	-12.0339
/24	-12.0342
▁나눠지는	-12.0343
▁있어야합니다	-12.0345
▁표준에서	-12.0347
▁나올때까지	-12.0349
▁출력하니	-12.035
▁소스입니다	-12.0358
▁마음이	-12.036
편의	-12.0361
▁하겠죠	-12.0361
gns	-12.0364
NT	-12.0364
=3,	-12.0364
좋	-12.0366
▁만족하는지	-12.0366
▁연산횟수	-12.0366
!=0)	-12.0367
▁해답을	-12.0367
▁단어들	-12.0367
313	-12.037
/70	-12.0371
▁주석이	-12.0372
으리라	-12.0373
this	-12.0374
▁것이었군요	-12.0374
▁받아오는	-12.0375
시군요	-12.0375
이상으로	-12.0379
▁봤을때	-12.0382
개인적으로	-12.0383
보았지만	-12.0384
786	-12.0385
하였다	-12.0387
333333	-12.0387
~23	-12.0387
▁151	-12.0388
▁주시는	-12.0388
▁이부분은	-12.0389
▁10%	-12.0389
bbb	-12.0389
▁permutation	-12.039
▁라운드	-12.0391
-------------	-12.0391
▁일때는	-12.0393
없네요	-12.0393
군데	-12.0394
▁toString	-12.0395
▁볼때	-12.0398
야겠어요	-12.0399
▁때문으로	-12.0399
ft	-12.0402
방법으로	-12.0404
해버려서	-12.0405
▁지어	-12.0406
▁부르면	-12.0407
▁각자	-12.0409
▁설명과	-12.041
얘	-12.0411
▁생각없	-12.0411
입력에	-12.0411
주어서	-12.0414
gs	-12.0415
▁틀리는지	-12.0417
Point	-12.0417
Prime	-12.0418
▁나와있	-12.0418
joonas	-12.0418
▁색깔을	-12.042
{0}	-12.042
change	-12.042
폰	-12.0421
최빈값	-12.0421
구조체	-12.0421
세그먼트	-12.0421
혼자	-12.0422
스트림	-12.0422
시험	-12.0423
모드	-12.0425
제출하신	-12.0426
-1);	-12.0427
▁않았으니	-12.0428
아하	-12.0429
0123456789	-12.043
▁Co	-12.043
▁나왔다	-12.0431
▁움직여	-12.0435
했을까요	-12.0436
▁가만	-12.0437
▁데이터만	-12.0437
11111111	-12.0439
▁처리합니다	-12.044
끝에	-12.0443
(1,2)	-12.0445
▁궁금한점	-12.0447
tor	-12.0448
▁실패가	-12.0449
그렇지만	-12.0452
-12	-12.0455
께요	-12.0456
▁지금보니	-12.0457
ug	-12.0459
▁포인터에	-12.0461
대문자	-12.0463
셨으니	-12.0463
려다가	-12.0465
▁알림이	-12.047
▁않은것	-12.047
▁있을지도	-12.0472
▁불가능하다	-12.0473
▁존재해야	-12.0473
red	-12.0474
▁중인데	-12.0475
01100	-12.048
▁다익스트라가	-12.0482
▁생겼을	-12.0483
▁alloc	-12.0484
rs	-12.0485
▁맨처음	-12.0485
삭	-12.0487
<1	-12.0487
▁하는것이	-12.0487
▁크기인	-12.0488
asd	-12.0488
▁비워주	-12.049
▁170	-12.0491
▁다른거	-12.0491
▁올리시는	-12.0492
▁버전으로	-12.0496
▁다른사람	-12.0497
이유가	-12.0498
▁초기화도	-12.0498
번호가	-12.0501
▁deq	-12.0502
▁계산될	-12.0503
▁올라	-12.0505
자체를	-12.0509
2+	-12.0511
알려	-12.0512
▁인덱스에러	-12.0512
▁생각해보시는	-12.0516
일부	-12.0517
▁방향에서	-12.0518
▁도착한	-12.0518
▁첫줄	-12.0523
10100	-12.0526
▁좌표에서	-12.0526
▁뛰어	-12.0527
때문	-12.0529
▁살아	-12.0535
사람이	-12.0536
▁see	-12.0537
[1000001]	-12.0538
...;;	-12.0538
▁감사합니다ᅲᅲᅲᅲ	-12.0546
▁가능해	-12.0546
228	-12.0546
큐에서	-12.0546
▁들어갔을	-12.0547
▁^^;;	-12.0548
-1-1	-12.0549
만이라	-12.0549
▁대입할	-12.0549
개라	-12.055
멍	-12.055
놈	-12.055
▁빠져나올	-12.0552
릿	-12.0552
▁화이트	-12.0552
・	-12.0553
lovinix	-12.0553
pragma	-12.0553
▁worst	-12.0553
▁갔던	-12.0553
▁무사히	-12.0553
▁벨트	-12.0553
▁비트마스크	-12.0553
▁성지순례	-12.0553
▁오래걸립니다	-12.0553
▁주피터	-12.0553
▁훌륭	-12.0553
롱	-12.0553
▁오큰수	-12.0553
LLLLLLLLLLLLLLLL	-12.0553
connect	-12.0553
ucpc	-12.0553
archive	-12.0553
▁ipsum	-12.0553
[...]
